{
  "version": "1.0",
  "truncation": null,
  "padding": null,
  "added_tokens": [
    {
      "id": 0,
      "content": "<pad>",
      "single_word": false,
      "lstrip": false,
      "rstrip": false,
      "normalized": false,
      "special": true
    },
    {
      "id": 1,
      "content": "<unk>",
      "single_word": false,
      "lstrip": false,
      "rstrip": false,
      "normalized": false,
      "special": true
    },
    {
      "id": 2,
      "content": "<bos>",
      "single_word": false,
      "lstrip": false,
      "rstrip": false,
      "normalized": false,
      "special": true
    },
    {
      "id": 3,
      "content": "<eos>",
      "single_word": false,
      "lstrip": false,
      "rstrip": false,
      "normalized": false,
      "special": true
    }
  ],
  "normalizer": null,
  "pre_tokenizer": {
    "type": "ByteLevel",
    "add_prefix_space": false,
    "trim_offsets": true,
    "use_regex": true
  },
  "post_processor": null,
  "decoder": {
    "type": "ByteLevel",
    "add_prefix_space": true,
    "trim_offsets": true,
    "use_regex": true
  },
  "model": {
    "type": "BPE",
    "dropout": null,
    "unk_token": "<unk>",
    "continuing_subword_prefix": null,
    "end_of_word_suffix": null,
    "fuse_unk": false,
    "byte_fallback": false,
    "ignore_merges": false,
    "vocab": {
      "<pad>": 0,
      "<unk>": 1,
      "<bos>": 2,
      "<eos>": 3,
      "!": 4,
      "\"": 5,
      "#": 6,
      "$": 7,
      "%": 8,
      "&": 9,
      "'": 10,
      "(": 11,
      ")": 12,
      "*": 13,
      "+": 14,
      ",": 15,
      "-": 16,
      ".": 17,
      "/": 18,
      "0": 19,
      "1": 20,
      "2": 21,
      "3": 22,
      "4": 23,
      "5": 24,
      "6": 25,
      "7": 26,
      "8": 27,
      "9": 28,
      ":": 29,
      ";": 30,
      "<": 31,
      "=": 32,
      ">": 33,
      "?": 34,
      "@": 35,
      "A": 36,
      "B": 37,
      "C": 38,
      "D": 39,
      "E": 40,
      "F": 41,
      "G": 42,
      "H": 43,
      "I": 44,
      "J": 45,
      "K": 46,
      "L": 47,
      "M": 48,
      "N": 49,
      "O": 50,
      "P": 51,
      "Q": 52,
      "R": 53,
      "S": 54,
      "T": 55,
      "U": 56,
      "V": 57,
      "W": 58,
      "X": 59,
      "Y": 60,
      "Z": 61,
      "[": 62,
      "\\": 63,
      "]": 64,
      "^": 65,
      "_": 66,
      "`": 67,
      "a": 68,
      "b": 69,
      "c": 70,
      "d": 71,
      "e": 72,
      "f": 73,
      "g": 74,
      "h": 75,
      "i": 76,
      "j": 77,
      "k": 78,
      "l": 79,
      "m": 80,
      "n": 81,
      "o": 82,
      "p": 83,
      "q": 84,
      "r": 85,
      "s": 86,
      "t": 87,
      "u": 88,
      "v": 89,
      "w": 90,
      "x": 91,
      "y": 92,
      "z": 93,
      "{": 94,
      "|": 95,
      "}": 96,
      "~": 97,
      "¡": 98,
      "¢": 99,
      "£": 100,
      "¤": 101,
      "¥": 102,
      "¦": 103,
      "§": 104,
      "¨": 105,
      "©": 106,
      "ª": 107,
      "«": 108,
      "¬": 109,
      "®": 110,
      "¯": 111,
      "°": 112,
      "±": 113,
      "²": 114,
      "³": 115,
      "´": 116,
      "µ": 117,
      "¶": 118,
      "·": 119,
      "¸": 120,
      "¹": 121,
      "º": 122,
      "»": 123,
      "¼": 124,
      "½": 125,
      "¾": 126,
      "¿": 127,
      "Â": 128,
      "Ã": 129,
      "Ä": 130,
      "Å": 131,
      "Æ": 132,
      "Ç": 133,
      "È": 134,
      "É": 135,
      "Ê": 136,
      "Ë": 137,
      "Ì": 138,
      "Í": 139,
      "Î": 140,
      "Ï": 141,
      "Ð": 142,
      "Ñ": 143,
      "Ò": 144,
      "Ó": 145,
      "Ô": 146,
      "Õ": 147,
      "Ö": 148,
      "×": 149,
      "Ø": 150,
      "Ù": 151,
      "Ú": 152,
      "Û": 153,
      "Ü": 154,
      "Þ": 155,
      "ß": 156,
      "à": 157,
      "á": 158,
      "â": 159,
      "ã": 160,
      "ä": 161,
      "å": 162,
      "æ": 163,
      "ç": 164,
      "è": 165,
      "é": 166,
      "ê": 167,
      "ë": 168,
      "ì": 169,
      "í": 170,
      "î": 171,
      "ï": 172,
      "ð": 173,
      "ñ": 174,
      "ó": 175,
      "ô": 176,
      "ā": 177,
      "Ă": 178,
      "ă": 179,
      "ą": 180,
      "Ć": 181,
      "ć": 182,
      "Ĉ": 183,
      "ĉ": 184,
      "Ċ": 185,
      "ċ": 186,
      "Č": 187,
      "č": 188,
      "Ď": 189,
      "ď": 190,
      "Đ": 191,
      "đ": 192,
      "Ē": 193,
      "ē": 194,
      "Ĕ": 195,
      "ĕ": 196,
      "ė": 197,
      "Ę": 198,
      "ę": 199,
      "Ě": 200,
      "ě": 201,
      "Ĝ": 202,
      "ĝ": 203,
      "Ğ": 204,
      "ğ": 205,
      "Ġ": 206,
      "ġ": 207,
      "Ģ": 208,
      "ģ": 209,
      "Ĥ": 210,
      "ĥ": 211,
      "Ħ": 212,
      "ħ": 213,
      "Ĩ": 214,
      "ĩ": 215,
      "Ī": 216,
      "ī": 217,
      "Ĭ": 218,
      "ĭ": 219,
      "Į": 220,
      "į": 221,
      "İ": 222,
      "ı": 223,
      "Ĳ": 224,
      "ĳ": 225,
      "Ĵ": 226,
      "ĵ": 227,
      "Ķ": 228,
      "ķ": 229,
      "ĸ": 230,
      "Ĺ": 231,
      "ĺ": 232,
      "Ļ": 233,
      "ļ": 234,
      "Ľ": 235,
      "ľ": 236,
      "Ŀ": 237,
      "ŀ": 238,
      "Ł": 239,
      "ł": 240,
      "Ń": 241,
      "Ġt": 242,
      "Ġa": 243,
      "he": 244,
      "in": 245,
      "re": 246,
      "Ġthe": 247,
      "Ġo": 248,
      "Ġs": 249,
      "er": 250,
      "Ġw": 251,
      "at": 252,
      "on": 253,
      "Ġc": 254,
      "nd": 255,
      "it": 256,
      "is": 257,
      "Ġb": 258,
      "ou": 259,
      "es": 260,
      "en": 261,
      "ing": 262,
      "Ġf": 263,
      "or": 264,
      "Ġp": 265,
      "Ġm": 266,
      "an": 267,
      "Ġto": 268,
      "ed": 269,
      "al": 270,
      "Ġd": 271,
      "Ġof": 272,
      "ar": 273,
      "Ġin": 274,
      "Ġh": 275,
      "Ġand": 276,
      "Ġth": 277,
      "le": 278,
      "ic": 279,
      "as": 280,
      "om": 281,
      "ion": 282,
      "Ġl": 283,
      "Ġn": 284,
      "ll": 285,
      "Ġe": 286,
      "ly": 287,
      "ĠI": 288,
      "ve": 289,
      "Ġg": 290,
      "st": 291,
      "Ġbe": 292,
      "ent": 293,
      "Ġre": 294,
      "Ġy": 295,
      "ot": 296,
      "Ġis": 297,
      "ut": 298,
      "ow": 299,
      "ct": 300,
      "Ġthat": 301,
      "âĢ": 302,
      "Ġyou": 303,
      "et": 304,
      "ĠT": 305,
      "se": 306,
      "id": 307,
      "ro": 308,
      "Ġon": 309,
      "im": 310,
      "ay": 311,
      "Ġit": 312,
      "Ġu": 313,
      "ad": 314,
      "Ġfor": 315,
      "ver": 316,
      "ce": 317,
      "ig": 318,
      "ld": 319,
      "Ġhe": 320,
      "Ġst": 321,
      "am": 322,
      "ur": 323,
      "ĠA": 324,
      "ĠS": 325,
      "ch": 326,
      "Ġwh": 327,
      "ir": 328,
      "Âł": 329,
      "ith": 330,
      "ĠĠ": 331,
      "Ġan": 332,
      "Ġas": 333,
      "Ġwe": 334,
      "ation": 335,
      "Ġwith": 336,
      "Ġha": 337,
      "ke": 338,
      "if": 339,
      "ra": 340,
      "ol": 341,
      "il": 342,
      "ĠC": 343,
      "Ġare": 344,
      "ter": 345,
      "ill": 346,
      "her": 347,
      "Ġwas": 348,
      "ĠM": 349,
      "od": 350,
      "ĠThe": 351,
      "ul": 352,
      "Ġcon": 353,
      "Ġor": 354,
      "ĠB": 355,
      "op": 356,
      "ge": 357,
      "Ġse": 358,
      "ck": 359,
      "ore": 360,
      "ers": 361,
      "âĢĻ": 362,
      "Ġde": 363,
      "Ġnot": 364,
      "ĠW": 365,
      "ht": 366,
      "ess": 367,
      "ate": 368,
      "ri": 369,
      "Ġcom": 370,
      "'s": 371,
      "us": 372,
      "ĠH": 373,
      "pe": 374,
      "Ġat": 375,
      "Ġpro": 376,
      "Ġhave": 377,
      "ĠP": 378,
      "Ġex": 379,
      "Ġ(": 380,
      "ould": 381,
      "um": 382,
      "Ġr": 383,
      "th": 384,
      "Ġne": 385,
      "ist": 386,
      "est": 387,
      "rom": 388,
      "ab": 389,
      "ant": 390,
      "em": 391,
      "Ġdo": 392,
      "Ġsu": 393,
      "Ġthis": 394,
      "ain": 395,
      "pp": 396,
      "Ġ1": 397,
      "qu": 398,
      "nt": 399,
      "Ġcan": 400,
      "Ġv": 401,
      "ally": 402,
      "Ġsh": 403,
      "ust": 404,
      "os": 405,
      "res": 406,
      "ight": 407,
      "ĠD": 408,
      "ive": 409,
      "Ġal": 410,
      "ome": 411,
      "ment": 412,
      "Ġch": 413,
      "Ġab": 414,
      "un": 415,
      "and": 416,
      "Ġfrom": 417,
      "Ġby": 418,
      "Ġk": 419,
      "out": 420,
      "ity": 421,
      "Ġthey": 422,
      "art": 423,
      "Ġle": 424,
      "el": 425,
      "ĠR": 426,
      "Ġgo": 427,
      "ĠF": 428,
      "Ġyour": 429,
      "Ġbut": 430,
      "Ġso": 431,
      "ies": 432,
      "Ġj": 433,
      "Ġwor": 434,
      "ort": 435,
      "Ġ2": 436,
      "Ġli": 437,
      "Ġme": 438,
      "ĠâĢ": 439,
      "Ġwhe": 440,
      "ĠG": 441,
      "red": 442,
      "Ġall": 443,
      "ie": 444,
      "ost": 445,
      "all": 446,
      "ĠN": 447,
      "ĠL": 448,
      "oug": 449,
      "ĠE": 450,
      "ak": 451,
      "ard": 452,
      "ĊĊ": 453,
      "oo": 454,
      "one": 455,
      "fe": 456,
      "Ġint": 457,
      "pt": 458,
      "Ġpl": 459,
      "Ġ\"": 460,
      "Ġhis": 461,
      "ide": 462,
      "Ġwill": 463,
      "iv": 464,
      "ci": 465,
      "ure": 466,
      "ast": 467,
      "Ġout": 468,
      "our": 469,
      "ag": 470,
      "Ġtheir": 471,
      "'t": 472,
      "ack": 473,
      "ther": 474,
      "ĠO": 475,
      "Ġus": 476,
      "ind": 477,
      "ud": 478,
      "Ġmy": 479,
      "ich": 480,
      "Ġup": 481,
      "very": 482,
      "ous": 483,
      "ake": 484,
      "Ġone": 485,
      "ound": 486,
      "ine": 487,
      "Ġtr": 488,
      "ong": 489,
      "pl": 490,
      "..": 491,
      "Ġmore": 492,
      "Ġhas": 493,
      "ĠJ": 494,
      "per": 495,
      "ame": 496,
      "Ġabout": 497,
      "The": 498,
      "ction": 499,
      "00": 500,
      "au": 501,
      "Ġwho": 502,
      "ough": 503,
      "ime": 504,
      "Ġlike": 505,
      "Ġar": 506,
      "ĠTh": 507,
      "og": 508,
      "ac": 509,
      "age": 510,
      "Ġen": 511,
      "ook": 512,
      "ans": 513,
      "Ġsome": 514,
      "Ġthem": 515,
      "Ġwould": 516,
      "Ġim": 517,
      "Ġte": 518,
      "Ġthere": 519,
      "Ġpe": 520,
      "Ġfe": 521,
      "ice": 522,
      "are": 523,
      "Ġwhat": 524,
      "Ġkn": 525,
      "Ġad": 526,
      "act": 527,
      "Ġhad": 528,
      "ated": 529,
      "iz": 530,
      "so": 531,
      "Ġcomp": 532,
      "Ġcl": 533,
      "Ġwhich": 534,
      "Ġman": 535,
      "ap": 536,
      "Ġif": 537,
      "Ġother": 538,
      "ven": 539,
      "Ġher": 540,
      "ĠIt": 541,
      "Ġget": 542,
      "Ġwere": 543,
      "Ġwhen": 544,
      "ople": 545,
      "ep": 546,
      "ĠĠĠĠ": 547,
      "Ġbec": 548,
      "ite": 549,
      "Ġany": 550,
      "able": 551,
      "cc": 552,
      "ink": 553,
      "ear": 554,
      "Ġun": 555,
      "ue": 556,
      "âĢĿ": 557,
      "own": 558,
      "Ġjust": 559,
      "ĠU": 560,
      "ib": 561,
      "Ġcont": 562,
      "ry": 563,
      "ĠY": 564,
      "ays": 565,
      "ical": 566,
      "Ġtime": 567,
      "Ġsa": 568,
      "Ġpeople": 569,
      "ose": 570,
      "Ġqu": 571,
      "ance": 572,
      "ions": 573,
      "ace": 574,
      "ass": 575,
      "ip": 576,
      "ult": 577,
      "Ġdis": 578,
      "ence": 579,
      "ĠIn": 580,
      "orm": 581,
      "Ġ-": 582,
      "ile": 583,
      "ause": 584,
      "reat": 585,
      "Ġag": 586,
      "ber": 587,
      "Ġres": 588,
      "ings": 589,
      "ire": 590,
      "ach": 591,
      "Ġno": 592,
      "Ġwork": 593,
      "ĠĠĠ": 594,
      "Ġthan": 595,
      "Ġinto": 596,
      "ĠK": 597,
      "ÂłÂł": 598,
      "ia": 599,
      "ary": 600,
      "oc": 601,
      "ress": 602,
      "Ġbeen": 603,
      "Ġhow": 604,
      "ick": 605,
      "ase": 606,
      "Ġsp": 607,
      "ff": 608,
      "Ġover": 609,
      "ru": 610,
      "hing": 611,
      "ĠâĢľ": 612,
      "ign": 613,
      "ations": 614,
      "ne": 615,
      "Ġper": 616,
      "Ġknow": 617,
      "Ġshe": 618,
      "Ġpart": 619,
      "ove": 620,
      "Ġinc": 621,
      "Ġgr": 622,
      "av": 623,
      "ount": 624,
      "du": 625,
      "Ġalso": 626,
      "int": 627,
      "ub": 628,
      "ond": 629,
      "ang": 630,
      "Ġpr": 631,
      "ree": 632,
      "Ġspe": 633,
      "ĠHe": 634,
      "Ġpre": 635,
      "nder": 636,
      "Ġoff": 637,
      "vel": 638,
      "ood": 639,
      "Ġour": 640,
      "Ġbl": 641,
      "ord": 642,
      "ens": 643,
      "ory": 644,
      "Ġyear": 645,
      "Ġneed": 646,
      "Ġhim": 647,
      "Ġam": 648,
      "Ġonly": 649,
      "itt": 650,
      "ial": 651,
      "Ġcould": 652,
      "ĠSt": 653,
      "Ġimp": 654,
      "Ġpo": 655,
      "sel": 656,
      "we": 657,
      "Ġ3": 658,
      "Ġsc": 659,
      "ren": 660,
      "ition": 661,
      "Ġbet": 662,
      "ail": 663,
      "ild": 664,
      "Ġro": 665,
      "ors": 666,
      "ark": 667,
      "Ġbecause": 668,
      "Ġwant": 669,
      "ov": 670,
      "ents": 671,
      "end": 672,
      "fter": 673,
      "ĠCh": 674,
      "Ġthen": 675,
      "Ġnew": 676,
      "ish": 677,
      "Ġtw": 678,
      "Ġco": 679,
      "irst": 680,
      "uch": 681,
      "Ġthink": 682,
      "Ġdon": 683,
      "Ġevery": 684,
      "Ġmake": 685,
      "Ġact": 686,
      "Ġback": 687,
      "ade": 688,
      "Ġdid": 689,
      "ater": 690,
      "hat": 691,
      "Ġapp": 692,
      "01": 693,
      "ces": 694,
      "Ġdif": 695,
      "Ġmost": 696,
      "ĠThis": 697,
      "ict": 698,
      "Ġeven": 699,
      "Ġthr": 700,
      "ons": 701,
      "ious": 702,
      "Ġsee": 703,
      "ob": 704,
      "Ġway": 705,
      "form": 706,
      "mer": 707,
      "Ġmay": 708,
      "rent": 709,
      "Ġits": 710,
      "Ġrec": 711,
      "ĠV": 712,
      "ual": 713,
      "ect": 714,
      "wn": 715,
      "Ġthese": 716,
      "ell": 717,
      "omet": 718,
      "Ġlook": 719,
      "ian": 720,
      "Ġfl": 721,
      "ple": 722,
      "urn": 723,
      "Ġunder": 724,
      "hed": 725,
      "Ġdoes": 726,
      "Ġsaid": 727,
      "other": 728,
      "Ġshould": 729,
      "Ġvery": 730,
      "oy": 731,
      "Ġmuch": 732,
      "Ġdes": 733,
      "fore": 734,
      "Ġwhere": 735,
      "hy": 736,
      "ull": 737,
      "ates": 738,
      "Ġcons": 739,
      "Ġacc": 740,
      "Ġfirst": 741,
      "ft": 742,
      "Ġuse": 743,
      "Ġsy": 744,
      "ife": 745,
      "ually": 746,
      "Ġgood": 747,
      "hen": 748,
      "les": 749,
      "vers": 750,
      "Ġcomm": 751,
      "Ġser": 752,
      "Ġtwo": 753,
      "Ġatt": 754,
      "ble": 755,
      "ise": 756,
      "Ġmany": 757,
      "Ġwr": 758,
      "Ġbr": 759,
      "Ġrel": 760,
      "igh": 761,
      ".\"": 762,
      "Ġtoo": 763,
      "Ġind": 764,
      "Ġbeing": 765,
      "xt": 766,
      "Ġthrough": 767,
      "ating": 768,
      "Ġnow": 769,
      "ĠYou": 770,
      "Ġsm": 771,
      "oss": 772,
      "Ġbu": 773,
      "ily": 774,
      "fect": 775,
      "ving": 776,
      "Ġra": 777,
      "ĠAnd": 778,
      "Ġtra": 779,
      "Ġhel": 780,
      "ning": 781,
      "Ġdown": 782,
      "Ġright": 783,
      "Ġem": 784,
      "Ġafter": 785,
      "ks": 786,
      "Ġwell": 787,
      "ful": 788,
      "Ġdiffe": 789,
      "aking": 790,
      "Ġpers": 791,
      "Ġke": 792,
      "Ġsomet": 793,
      "Ġrem": 794,
      "self": 795,
      "ower": 796,
      "Ġdec": 797,
      "ific": 798,
      "cial": 799,
      "ting": 800,
      "tern": 801,
      "Ġhelp": 802,
      "Ġ19": 803,
      "te": 804,
      "Ġagain": 805,
      "Ġlong": 806,
      "Ġ4": 807,
      "ĠBut": 808,
      "ĠIf": 809,
      "ath": 810,
      "ĠWe": 811,
      "ĠâĢ¢": 812,
      "ew": 813,
      "ert": 814,
      "aw": 815,
      "erm": 816,
      "ible": 817,
      "cess": 818,
      "Ġthose": 819,
      "gr": 820,
      "oth": 821,
      "Ġsay": 822,
      "Ġsuch": 823,
      "ves": 824,
      "lic": 825,
      "Ġgen": 826,
      "Ġfo": 827,
      "ange": 828,
      "ty": 829,
      "ced": 830,
      "ock": 831,
      "Ġown": 832,
      "iss": 833,
      "Ġreally": 834,
      "ments": 835,
      "Ġyears": 836,
      "Ġ5": 837,
      "Ġinv": 838,
      "Ġev": 839,
      "pect": 840,
      "ular": 841,
      "...": 842,
      "Ġadd": 843,
      "ject": 844,
      "Ġgu": 845,
      "ars": 846,
      "olog": 847,
      "ved": 848,
      "li": 849,
      "ĠThey": 850,
      "Ġrep": 851,
      "ec": 852,
      "Ġstart": 853,
      "Ġplay": 854,
      "Ġob": 855,
      "Ġ201": 856,
      "Ġbel": 857,
      "get": 858,
      "Ġbefore": 859,
      "Ġsim": 860,
      "ĊĠ": 861,
      "lect": 862,
      "ph": 863,
      "Ġcall": 864,
      "alk": 865,
      "iew": 866,
      "Ġtake": 867,
      "Ġgoing": 868,
      "ought": 869,
      "ics": 870,
      "Ġcr": 871,
      "ere": 872,
      "Ġaw": 873,
      "Ġsame": 874,
      "Ġworld": 875,
      "day": 876,
      "Ġend": 877,
      "stem": 878,
      "ative": 879,
      "Ġstill": 880,
      "Ġread": 881,
      "als": 882,
      "ave": 883,
      "Ġinst": 884,
      "Ġsupp": 885,
      "old": 886,
      "its": 887,
      "Ġac": 888,
      "hes": 889,
      "Ġlife": 890,
      "Ġsec": 891,
      "Ġperson": 892,
      "Ġfind": 893,
      "Ġpol": 894,
      "ident": 895,
      "ever": 896,
      "Ġused": 897,
      "Ġreg": 898,
      "Ġprodu": 899,
      "Ġthings": 900,
      "Ġreal": 901,
      "Ġph": 902,
      "Ġpoint": 903,
      "rib": 904,
      "ather": 905,
      "Ġcol": 906,
      "Ġins": 907,
      "Ġent": 908,
      "imes": 909,
      "),": 910,
      "Ġday": 911,
      "Ġfeel": 912,
      "Ġhand": 913,
      "Ġmade": 914,
      "ility": 915,
      "ities": 916,
      "Ġhapp": 917,
      "lud": 918,
      "Ġsomething": 919,
      "ody": 920,
      "ont": 921,
      "akes": 922,
      "Ġhere": 923,
      "cept": 924,
      "'m": 925,
      "Ġsur": 926,
      "ied": 927,
      "Ġche": 928,
      "ĠAs": 929,
      "ffect": 930,
      "Ġdifferent": 931,
      "Ġset": 932,
      "ows": 933,
      "Ġsub": 934,
      "up": 935,
      "Th": 936,
      "ween": 937,
      "'re": 938,
      "Ġcar": 939,
      "Ġaround": 940,
      "Ġgreat": 941,
      "ism": 942,
      "ased": 943,
      "ness": 944,
      "Ġwhile": 945,
      "Ġsl": 946,
      "Ġsystem": 947,
      "cy": 948,
      "ote": 949,
      "ng": 950,
      "ward": 951,
      "thing": 952,
      "gg": 953,
      "ract": 954,
      "ince": 955,
      "read": 956,
      "Ġchar": 957,
      "Ġbetween": 958,
      "ĠSo": 959,
      "uring": 960,
      "ittle": 961,
      "ying": 962,
      "Ġpres": 963,
      "Ġstud": 964,
      "Ġstr": 965,
      "ures": 966,
      "Ġexper": 967,
      "Ġfact": 968,
      "Ġlot": 969,
      "Ġcount": 970,
      "led": 971,
      "the": 972,
      "owing": 973,
      "ef": 974,
      "Ġform": 975,
      "Ġass": 976,
      "Ġmin": 977,
      "ah": 978,
      "air": 979,
      "Ġhigh": 980,
      "Ġnum": 981,
      "Ġeach": 982,
      "ax": 983,
      "Ġinter": 984,
      "any": 985,
      "ically": 986,
      "Ġ'": 987,
      "In": 988,
      "ited": 989,
      "ins": 990,
      "ution": 991,
      "ĠThere": 992,
      "ways": 993,
      "Ġmon": 994,
      "Ġexp": 995,
      "Ġmod": 996,
      "Ġnever": 997,
      "ues": 998,
      "Ġ200": 999,
      "Ġlittle": 1000,
      "Ġprov": 1001,
      "ank": 1002,
      "Ġtrans": 1003,
      "Ġcre": 1004,
      "ĠUn": 1005,
      "Ġdisc": 1006,
      "Ġfin": 1007,
      "gan": 1008,
      "Ġmet": 1009,
      "ĠĠĠĠĠĠĠĠ": 1010,
      "ĠHow": 1011,
      "ĠAn": 1012,
      "Ġart": 1013,
      "Ġseem": 1014,
      "ten": 1015,
      "Ġmight": 1016,
      "Ġear": 1017,
      "Ġfew": 1018,
      "ss": 1019,
      "Ġ[": 1020,
      "Ġinclud": 1021,
      "ix": 1022,
      "atch": 1023,
      "alth": 1024,
      "be": 1025,
      "Ġmed": 1026,
      "ĠRe": 1027,
      "Ġop": 1028,
      "arch": 1029,
      "blem": 1030,
      "Ġap": 1031,
      "ines": 1032,
      "Ġchild": 1033,
      "meric": 1034,
      "Ġ6": 1035,
      "ason": 1036,
      "Ġext": 1037,
      "velop": 1038,
      "und": 1039,
      "Ġfam": 1040,
      "ool": 1041,
      "ational": 1042,
      "Ġgener": 1043,
      "Ġhum": 1044,
      "less": 1045,
      "ÂłÂłÂłÂł": 1046,
      "ize": 1047,
      "Ġexam": 1048,
      "ctions": 1049,
      "Ġboth": 1050,
      "Ġquest": 1051,
      "der": 1052,
      "ists": 1053,
      "ps": 1054,
      "'ve": 1055,
      "Ġwhy": 1056,
      "ork": 1057,
      "riend": 1058,
      "Ġdet": 1059,
      "hip": 1060,
      "Ġfoll": 1061,
      "Ġdef": 1062,
      "Ġgot": 1063,
      "Ġput": 1064,
      "vern": 1065,
      "Ġfound": 1066,
      "ĠAl": 1067,
      "Ġproblem": 1068,
      "ner": 1069,
      "Ġcor": 1070,
      "arm": 1071,
      "Ġlast": 1072,
      "ale": 1073,
      "ense": 1074,
      "Ġposs": 1075,
      "Ġlet": 1076,
      "ouse": 1077,
      "Ġcur": 1078,
      "Ġbetter": 1079,
      "Ġty": 1080,
      "Ġmov": 1081,
      "Ġanother": 1082,
      "Ġide": 1083,
      "Ġgiv": 1084,
      "Ġcle": 1085,
      "ages": 1086,
      "iness": 1087,
      "Ġfun": 1088,
      "ices": 1089,
      "Ġbelie": 1090,
      "Ġrun": 1091,
      "ĠThat": 1092,
      "Ġsign": 1093,
      "Ġ$": 1094,
      "ublic": 1095,
      "az": 1096,
      "Ġalways": 1097,
      "Ġret": 1098,
      "Ġgl": 1099,
      "Ġcome": 1100,
      "erest": 1101,
      "Ġcour": 1102,
      "stand": 1103,
      "ĠFor": 1104,
      "Ġkeep": 1105,
      "ĠAmeric": 1106,
      "io": 1107,
      "It": 1108,
      "Ġimport": 1109,
      "Ġhard": 1110,
      "Ġsk": 1111,
      "Ġwithout": 1112,
      "Ġbest": 1113,
      "--": 1114,
      "Ġthing": 1115,
      "ric": 1116,
      "Ġrequ": 1117,
      "oney": 1118,
      "Ġturn": 1119,
      ").": 1120,
      "Ġlead": 1121,
      "Ġexpl": 1122,
      "ute": 1123,
      "Ġcomple": 1124,
      "ention": 1125,
      "ably": 1126,
      "uth": 1127,
      "ys": 1128,
      "Ġpower": 1129,
      ".âĢĿ": 1130,
      "ĠShe": 1131,
      "ĠWhat": 1132,
      "Ġold": 1133,
      "Ġval": 1134,
      "Ġask": 1135,
      "ger": 1136,
      "Ġeas": 1137,
      "Ġless": 1138,
      "Ġwom": 1139,
      "Ġhead": 1140,
      "Ġword": 1141,
      "Ġlar": 1142,
      "Ġusing": 1143,
      "Ġbus": 1144,
      "Ġplace": 1145,
      "Ġdevelop": 1146,
      ",\"": 1147,
      "Ġfr": 1148,
      "Ġhome": 1149,
      "ized": 1150,
      "ts": 1151,
      "Ġfil": 1152,
      "Ġmem": 1153,
      "Ġbig": 1154,
      "Ġbo": 1155,
      "Ġdist": 1156,
      "ash": 1157,
      "Ġel": 1158,
      "ters": 1159,
      "Ġbook": 1160,
      "ead": 1161,
      "con": 1162,
      "Ġca": 1163,
      "Ġmark": 1164,
      "iting": 1165,
      "Ġsmall": 1166,
      "Ġmust": 1167,
      "ertain": 1168,
      "Ġeffect": 1169,
      "chn": 1170,
      "Ġthought": 1171,
      "uck": 1172,
      "ets": 1173,
      "pr": 1174,
      "fl": 1175,
      "Ġinform": 1176,
      "Ġ10": 1177,
      "ata": 1178,
      "Ġstate": 1179,
      "Ġi": 1180,
      "Ġref": 1181,
      "gy": 1182,
      "ern": 1183,
      "uss": 1184,
      "ature": 1185,
      "Ġinterest": 1186,
      "Ġ7": 1187,
      "Ġprocess": 1188,
      "here": 1189,
      "Ġwater": 1190,
      "ee": 1191,
      "omm": 1192,
      "Ġmean": 1193,
      "Ġpost": 1194,
      "ined": 1195,
      "uc": 1196,
      "Ġlear": 1197,
      "Ġtell": 1198,
      "Ġresult": 1199,
      "ient": 1200,
      "ately": 1201,
      "Ġpass": 1202,
      "ience": 1203,
      "chool": 1204,
      "Ġadv": 1205,
      "Ġgovern": 1206,
      "Ġwee": 1207,
      "Ġdire": 1208,
      "man": 1209,
      "ĠSh": 1210,
      "Ġ8": 1211,
      "ug": 1212,
      "Ġcare": 1213,
      "Ġmus": 1214,
      "Ġdidn": 1215,
      "ĊĊĠĠĠ": 1216,
      "Ġfriend": 1217,
      "ared": 1218,
      "ĠIs": 1219,
      "amp": 1220,
      "Ġplan": 1221,
      "ex": 1222,
      "ĠAr": 1223,
      "Ġaway": 1224,
      "Ġactually": 1225,
      "Ġspec": 1226,
      "Ġav": 1227,
      "Ġagainst": 1228,
      "Ġsure": 1229,
      "Ġvar": 1230,
      "This": 1231,
      "Ġdi": 1232,
      "ĠWh": 1233,
      "Ġmoney": 1234,
      "land": 1235,
      "Ġsince": 1236,
      "'ll": 1237,
      "Ġenough": 1238,
      "oun": 1239,
      "Ġconc": 1240,
      "Ġthree": 1241,
      "Ġmat": 1242,
      "Ġunderstand": 1243,
      "Ġed": 1244,
      "Ġlove": 1245,
      "Ġtri": 1246,
      "Ġshow": 1247,
      "ross": 1248,
      "ames": 1249,
      "Ġmain": 1250,
      "Ġresp": 1251,
      "Ġloc": 1252,
      "Ġpay": 1253,
      "ired": 1254,
      "Ġkind": 1255,
      "ier": 1256,
      "ants": 1257,
      "Ġrest": 1258,
      "Ġpartic": 1259,
      "Ġnumber": 1260,
      "ology": 1261,
      "Ġbody": 1262,
      "Ġstand": 1263,
      "Ġbeh": 1264,
      "âĢĶ": 1265,
      "Ġimportant": 1266,
      "Ġoften": 1267,
      "ety": 1268,
      "Ġgrou": 1269,
      "pend": 1270,
      "Ġunt": 1271,
      "ling": 1272,
      "ider": 1273,
      "Ġvis": 1274,
      "Ġsol": 1275,
      "line": 1276,
      "bs": 1277,
      "oh": 1278,
      "ural": 1279,
      "ĠWhen": 1280,
      "rol": 1281,
      "Ġduring": 1282,
      "Ġtalk": 1283,
      "Ġgive": 1284,
      "ret": 1285,
      "Ġ9": 1286,
      "Ġable": 1287,
      "Ġdoesn": 1288,
      "Ġiss": 1289,
      "Ġgra": 1290,
      "Ġcent": 1291,
      "aj": 1292,
      "Ġpur": 1293,
      "Ġlist": 1294,
      "Ġthough": 1295,
      "aug": 1296,
      "Ġdr": 1297,
      "Ġlevel": 1298,
      "osed": 1299,
      "Ġlaw": 1300,
      "__": 1301,
      "Ġclass": 1302,
      "Ġpat": 1303,
      "Ġincre": 1304,
      "to": 1305,
      "Ġopen": 1306,
      "view": 1307,
      "rop": 1308,
      "You": 1309,
      "br": 1310,
      "Ġpop": 1311,
      "Ġnext": 1312,
      "Ġbre": 1313,
      "gram": 1314,
      "ĊĊĠ": 1315,
      "ption": 1316,
      "Ġtechn": 1317,
      "Ġhappen": 1318,
      "Ġinformation": 1319,
      "Ġgame": 1320,
      "Ġcontin": 1321,
      "Ġdem": 1322,
      "Ġdri": 1323,
      "com": 1324,
      "err": 1325,
      "orn": 1326,
      "Ġ0": 1327,
      "000": 1328,
      "Ġexample": 1329,
      "Ġleft": 1330,
      "âĢ¦": 1331,
      "Ġcase": 1332,
      "Ġsecond": 1333,
      "Ġcharact": 1334,
      "me": 1335,
      "ĠBr": 1336,
      "ither": 1337,
      "ases": 1338,
      "Ġhealth": 1339,
      "Ġfree": 1340,
      "sw": 1341,
      "Ġopp": 1342,
      "Ġlight": 1343,
      "ital": 1344,
      "Ġsays": 1345,
      "Ġbra": 1346,
      "ield": 1347,
      "ĠNew": 1348,
      "Ġcalled": 1349,
      "Ġchange": 1350,
      "Ġtop": 1351,
      "Ġconf": 1352,
      "Ġsupport": 1353,
      "Ġsit": 1354,
      "ruct": 1355,
      "Ġhuman": 1356,
      "inal": 1357,
      "ok": 1358,
      "Ġfull": 1359,
      "Ġbuild": 1360,
      "Ġey": 1361,
      "Ġwar": 1362,
      "Ġappe": 1363,
      "Ġpos": 1364,
      "Ġbusiness": 1365,
      "What": 1366,
      "arent": 1367,
      "Ġschool": 1368,
      "Ġdoing": 1369,
      "ump": 1370,
      "Ġmind": 1371,
      "Ġcommun": 1372,
      "rence": 1373,
      "Ġmove": 1374,
      "ides": 1375,
      "Ġsomeone": 1376,
      "Ġuntil": 1377,
      "ode": 1378,
      "Ġfood": 1379,
      "Ġbas": 1380,
      "Ġfar": 1381,
      "Ġgovernment": 1382,
      "ats": 1383,
      "Ġmeans": 1384,
      "Ġserv": 1385,
      "ember": 1386,
      "Ġname": 1387,
      "Ġsw": 1388,
      "Ġever": 1389,
      "Ġdata": 1390,
      "Ġbit": 1391,
      "ĊĠĠĠ": 1392,
      "ĠâĢĵ": 1393,
      "Ġtest": 1394,
      "ered": 1395,
      "Ġhaving": 1396,
      "ently": 1397,
      "Ġprof": 1398,
      "ality": 1399,
      "bers": 1400,
      "Ġmonth": 1401,
      "Ġterm": 1402,
      "Ġtimes": 1403,
      "Ġcertain": 1404,
      "Ġmaking": 1405,
      "dd": 1406,
      "Ġstory": 1407,
      "Ġmakes": 1408,
      "ivid": 1409,
      "ĠOn": 1410,
      "not": 1411,
      "ished": 1412,
      "ream": 1413,
      "ĠDe": 1414,
      "Ġchang": 1415,
      "Ġleg": 1416,
      "Ġproduct": 1417,
      "Ġdone": 1418,
      "ids": 1419,
      "Ġmen": 1420,
      "Ġorder": 1421,
      "Ġreason": 1422,
      "Ġequ": 1423,
      "Ġhist": 1424,
      "Ġes": 1425,
      "ĠÂł": 1426,
      "Ġfamily": 1427,
      "Ġpolit": 1428,
      "Ġprob": 1429,
      "Ġconst": 1430,
      "vious": 1431,
      "ains": 1432,
      "ering": 1433,
      "Ġquestion": 1434,
      "Ġprogram": 1435,
      "Ġdays": 1436,
      "Ġside": 1437,
      "Ġbecome": 1438,
      "med": 1439,
      "ik": 1440,
      "10": 1441,
      "Ġ--": 1442,
      "ird": 1443,
      "ien": 1444,
      "Ġjob": 1445,
      "Ġleast": 1446,
      "ĠQ": 1447,
      "aring": 1448,
      "ĠTr": 1449,
      "aps": 1450,
      "Ġpublic": 1451,
      "Ġcost": 1452,
      "ĠâĢĺ": 1453,
      "rist": 1454,
      "ised": 1455,
      "reen": 1456,
      "Ġlarge": 1457,
      "Ġcourse": 1458,
      "Ġdesign": 1459,
      "uff": 1460,
      "We": 1461,
      "ories": 1462,
      "Ġele": 1463,
      "ĠPro": 1464,
      "ted": 1465,
      "Ġpri": 1466,
      "If": 1467,
      "ĠBe": 1468,
      "ready": 1469,
      "ann": 1470,
      "most": 1471,
      "Ġothers": 1472,
      "hys": 1473,
      "Ġstop": 1474,
      "Ġsing": 1475,
      "Ġanything": 1476,
      "erv": 1477,
      "Ġdirect": 1478,
      "Ġocc": 1479,
      "ged": 1480,
      "cl": 1481,
      "cing": 1482,
      "gin": 1483,
      "ope": 1484,
      "Ġair": 1485,
      "Ġcame": 1486,
      "ĠUS": 1487,
      "ision": 1488,
      "ĠAt": 1489,
      "icle": 1490,
      "att": 1491,
      "Ġbad": 1492,
      "ĠTo": 1493,
      "ator": 1494,
      "Ġsound": 1495,
      "Ġpar": 1496,
      "Ġonce": 1497,
      "âĢľ": 1498,
      "Ġcountry": 1499,
      "Ġlo": 1500,
      "Ġdra": 1501,
      "ining": 1502,
      "ron": 1503,
      "Ġve": 1504,
      "Ġhour": 1505,
      "Ġnight": 1506,
      "Ġalready": 1507,
      "'d": 1508,
      "lf": 1509,
      "Ġgetting": 1510,
      "Ġpossible": 1511,
      "ccess": 1512,
      "ians": 1513,
      "ided": 1514,
      "used": 1515,
      "ives": 1516,
      "Ġteam": 1517,
      "ĠCl": 1518,
      "Ġwithin": 1519,
      "conom": 1520,
      "ards": 1521,
      "Ġorgan": 1522,
      "iqu": 1523,
      "ane": 1524,
      "Ġchildren": 1525,
      "Ġpast": 1526,
      "Ġben": 1527,
      "Ġinvest": 1528,
      "ĠInd": 1529,
      "Ġmom": 1530,
      "Ġcap": 1531,
      "work": 1532,
      "ploy": 1533,
      "Ġhouse": 1534,
      "els": 1535,
      "Ġmil": 1536,
      "ional": 1537,
      "Ġpain": 1538,
      "iter": 1539,
      "Ġlearn": 1540,
      "Ġtry": 1541,
      "ton": 1542,
      "ĠZ": 1543,
      "lease": 1544,
      "Ġkill": 1545,
      "rap": 1546,
      "ĠBl": 1547,
      "Ġline": 1548,
      "Ġwent": 1549,
      "Ġmar": 1550,
      "Ġmarket": 1551,
      "ĠGod": 1552,
      "itive": 1553,
      "of": 1554,
      "Ġdep": 1555,
      "Ġappro": 1556,
      "idd": 1557,
      "ĠSe": 1558,
      "Ġeng": 1559,
      "Ġidea": 1560,
      "Ġcontrol": 1561,
      "Ġprot": 1562,
      "Ġview": 1563,
      "ajor": 1564,
      "sc": 1565,
      "atic": 1566,
      "selves": 1567,
      "aim": 1568,
      "Ġ=": 1569,
      "orts": 1570,
      "ries": 1571,
      "outh": 1572,
      "ots": 1573,
      "Ġpa": 1574,
      "Ġansw": 1575,
      "19": 1576,
      "ured": 1577,
      "side": 1578,
      "ustom": 1579,
      "Ġcurrent": 1580,
      "Ġcreat": 1581,
      "ĠDo": 1582,
      "Ġbelieve": 1583,
      "Ġtoday": 1584,
      "Ġperform": 1585,
      "Ġwomen": 1586,
      "Ġfore": 1587,
      "Ġcompany": 1588,
      "Ġrese": 1589,
      "ury": 1590,
      "Ġpret": 1591,
      "ina": 1592,
      "ral": 1593,
      "Ġexperience": 1594,
      "Ġtoget": 1595,
      "app": 1596,
      "by": 1597,
      "ization": 1598,
      "Ġtogether": 1599,
      "Ġgroup": 1600,
      "way": 1601,
      "Ġclear": 1602,
      "ior": 1603,
      "ĠAll": 1604,
      "Ġshort": 1605,
      "ivers": 1606,
      "eng": 1607,
      "Ġproper": 1608,
      "ium": 1609,
      "illion": 1610,
      "iron": 1611,
      "alf": 1612,
      "ential": 1613,
      "Ġwhole": 1614,
      "Ġfilm": 1615,
      "Ġprobably": 1616,
      "sh": 1617,
      "How": 1618,
      "Ġnothing": 1619,
      "ĠNo": 1620,
      "ividual": 1621,
      "ĠSp": 1622,
      "Ġpot": 1623,
      "ĠHowever": 1624,
      "Ġet": 1625,
      "Ġcomplete": 1626,
      "Ġdev": 1627,
      "Ġseen": 1628,
      "ified": 1629,
      "Ġsci": 1630,
      "Ġprom": 1631,
      "Ġgiven": 1632,
      "Ġnear": 1633,
      "ĠOr": 1634,
      "ĠMy": 1635,
      "Ġcell": 1636,
      "Ġelect": 1637,
      "ĠLe": 1638,
      "Ġest": 1639,
      "Ġris": 1640,
      "Ġcond": 1641,
      "Ġyet": 1642,
      "Ġlater": 1643,
      "oice": 1644,
      "Ġpract": 1645,
      "Ġ18": 1646,
      "owed": 1647,
      "Ġtrying": 1648,
      "Ġ12": 1649,
      "aster": 1650,
      "Ġelse": 1651,
      "Ġ20": 1652,
      "ott": 1653,
      "Ġrather": 1654,
      "ulation": 1655,
      "Ġlooking": 1656,
      "ortun": 1657,
      "bo": 1658,
      "Ġeconom": 1659,
      "cially": 1660,
      "ination": 1661,
      "ffic": 1662,
      "ained": 1663,
      "ilar": 1664,
      "So": 1665,
      "Ġcommon": 1666,
      "utes": 1667,
      "Ġexpect": 1668,
      "Ġworking": 1669,
      "Ġisn": 1670,
      "Ġsocial": 1671,
      "ush": 1672,
      "Ġtook": 1673,
      "Ġparticular": 1674,
      "Ġmajor": 1675,
      "Ġeither": 1676,
      "uro": 1677,
      "Ġtyp": 1678,
      "Ġreturn": 1679,
      "Ġyoung": 1680,
      "aken": 1681,
      "Ġknown": 1682,
      "Ġsever": 1683,
      "Ġlive": 1684,
      "vent": 1685,
      "ances": 1686,
      "Ġindividual": 1687,
      "Ġwa": 1688,
      "itions": 1689,
      "Ġhold": 1690,
      "Ġwords": 1691,
      "Ġface": 1692,
      "ched": 1693,
      "Ġeverything": 1694,
      "Ġland": 1695,
      "Ġcult": 1696,
      "ony": 1697,
      "Ġcheck": 1698,
      "angu": 1699,
      "ply": 1700,
      "And": 1701,
      "ery": 1702,
      "ĠCom": 1703,
      "An": 1704,
      "Ġinvol": 1705,
      "ument": 1706,
      "Ġnon": 1707,
      "Ġcomes": 1708,
      "St": 1709,
      "Ġdiff": 1710,
      "cle": 1711,
      "11": 1712,
      "Ġroom": 1713,
      "Ġener": 1714,
      "arr": 1715,
      "oll": 1716,
      "Ġfre": 1717,
      "ĠChrist": 1718,
      "Ġlim": 1719,
      "Ġtem": 1720,
      "uthor": 1721,
      "ĠFr": 1722,
      "ĠAmerican": 1723,
      "Ġrecord": 1724,
      "Ġsuccess": 1725,
      "Ġ/": 1726,
      "Ġlow": 1727,
      "Ġdesc": 1728,
      "Ġphys": 1729,
      "Ġ.": 1730,
      "Ġheart": 1731,
      "Ġpresent": 1732,
      "oint": 1733,
      "Ġdeal": 1734,
      "Ġmiss": 1735,
      "Ġalong": 1736,
      "let": 1737,
      "Ġorig": 1738,
      "Ġintern": 1739,
      "Ġalmost": 1740,
      "Ġago": 1741,
      "Ġseems": 1742,
      "Ġphot": 1743,
      "Ġseveral": 1744,
      "Ġoper": 1745,
      "Ġtre": 1746,
      "Ġamount": 1747,
      "Ġtold": 1748,
      "Ġweek": 1749,
      "irl": 1750,
      "Ġbased": 1751,
      "As": 1752,
      "Ġcou": 1753,
      "ike": 1754,
      "Ġmor": 1755,
      "Ġmusic": 1756,
      "Ġconne": 1757,
      "Ġstarted": 1758,
      "Ġfour": 1759,
      "There": 1760,
      "Ġconsider": 1761,
      "ĠOne": 1762,
      "Ġquick": 1763,
      "ability": 1764,
      "over": 1765,
      "gle": 1766,
      "Ġbro": 1767,
      "ĠEx": 1768,
      "Ġwon": 1769,
      "Ġ&": 1770,
      "ĠPl": 1771,
      "Ġaccount": 1772,
      "ĠRep": 1773,
      "eral": 1774,
      "Ġcal": 1775,
      "ĠCon": 1776,
      "But": 1777,
      "Ġstrong": 1778,
      "ones": 1779,
      "Ġspecific": 1780,
      "Ġcharacter": 1781,
      "orth": 1782,
      "ully": 1783,
      "Ġant": 1784,
      "He": 1785,
      "hod": 1786,
      "ration": 1787,
      "Ġpretty": 1788,
      "Ġcustom": 1789,
      "Ġaut": 1790,
      "Ġtrad": 1791,
      "ĠNot": 1792,
      "Ġactiv": 1793,
      "for": 1794,
      "Ġsense": 1795,
      "50": 1796,
      "lish": 1797,
      "Ġquite": 1798,
      "Ġneeds": 1799,
      "Ġpress": 1800,
      "ource": 1801,
      "ole": 1802,
      "Ġtreat": 1803,
      "Ġsal": 1804,
      "Ġfall": 1805,
      "ĠThese": 1806,
      "wh": 1807,
      "ency": 1808,
      "lo": 1809,
      "ape": 1810,
      ".)": 1811,
      "though": 1812,
      "mb": 1813,
      "Ġtrue": 1814,
      "por": 1815,
      "Ġincluding": 1816,
      "Ġrece": 1817,
      "Ġarg": 1818,
      "12": 1819,
      ",âĢĿ": 1820,
      "aces": 1821,
      "Ġredu": 1822,
      "cent": 1823,
      "Ġmatter": 1824,
      "idence": 1825,
      "wards": 1826,
      "Ġclose": 1827,
      "Ġenergy": 1828,
      "ĠCan": 1829,
      "Ġtax": 1830,
      "Ġ|": 1831,
      "uture": 1832,
      "Ġfollowing": 1833,
      "Ġwin": 1834,
      "Ġlikely": 1835,
      "Ġsex": 1836,
      "Ġexist": 1837,
      "icult": 1838,
      "Ġarea": 1839,
      "Ġwhether": 1840,
      "Ġeveryone": 1841,
      "Ġadm": 1842,
      "Ġself": 1843,
      "Ġfriends": 1844,
      "elt": 1845,
      "ĠMar": 1846,
      "Ġpict": 1847,
      "Ġwalk": 1848,
      "Ġproject": 1849,
      "ney": 1850,
      "Ġbenef": 1851,
      "Ġdeath": 1852,
      "Ġtype": 1853,
      "ĠEng": 1854,
      "use": 1855,
      "Ġwatch": 1856,
      "aut": 1857,
      "par": 1858,
      "pecially": 1859,
      "ĠAd": 1860,
      "ggest": 1861,
      "Ġarm": 1862,
      "Ġsimply": 1863,
      "Ġcreate": 1864,
      "Ġhig": 1865,
      "itional": 1866,
      "Ġmult": 1867,
      "ĠWith": 1868,
      "Ġinf": 1869,
      "Ġattack": 1870,
      "Ġimpro": 1871,
      "Ġfail": 1872,
      "Ġident": 1873,
      "ches": 1874,
      "Ġentire": 1875,
      "Ġprop": 1876,
      "ising": 1877,
      "pped": 1878,
      "ware": 1879,
      "ohn": 1880,
      "Ġgrow": 1881,
      "Ġbuy": 1882,
      "Ġcut": 1883,
      "ify": 1884,
      "Ġblood": 1885,
      "sy": 1886,
      "Ġanal": 1887,
      "Ġusually": 1888,
      "Ġfoc": 1889,
      "Ġclaim": 1890,
      "urther": 1891,
      "oid": 1892,
      "Ġbreak": 1893,
      "Ġcomput": 1894,
      "ison": 1895,
      "Ġevent": 1896,
      "cer": 1897,
      "unt": 1898,
      "Ġz": 1899,
      "ctor": 1900,
      "Ġstep": 1901,
      "Ġvers": 1902,
      "ER": 1903,
      "ression": 1904,
      "urs": 1905,
      "Ġhistory": 1906,
      "rodu": 1907,
      "ĠX": 1908,
      "ills": 1909,
      "Ġabove": 1910,
      "ĠSc": 1911,
      "Ġlangu": 1912,
      "where": 1913,
      "Ġbegin": 1914,
      "Ġinfl": 1915,
      "Ġthemselves": 1916,
      "Ġavail": 1917,
      "Ġblack": 1918,
      "ama": 1919,
      "Ġvide": 1920,
      "Ġwind": 1921,
      "Ġmeet": 1922,
      "ored": 1923,
      "Ġsuggest": 1924,
      "Ġwanted": 1925,
      "Ġprovide": 1926,
      "Ġtaking": 1927,
      "Ġmag": 1928,
      "ĠPr": 1929,
      "Ġanim": 1930,
      "Ġwond": 1931,
      "Ġemploy": 1932,
      "Ġsent": 1933,
      "Ġhalf": 1934,
      "Ġsitu": 1935,
      "ĠĠĠĠĠ": 1936,
      "Ġcra": 1937,
      "Ġvalue": 1938,
      "Ġrelations": 1939,
      "Ġabs": 1940,
      "Ġsingle": 1941,
      "Ġhy": 1942,
      "ene": 1943,
      "leep": 1944,
      "Ġeyes": 1945,
      "Ġmess": 1946,
      "ĠMay": 1947,
      "Ġanswer": 1948,
      "Ġrepl": 1949,
      "Ġ15": 1950,
      "Ġla": 1951,
      "Ġvari": 1952,
      "Ġnat": 1953,
      "ĠSome": 1954,
      "Ġfuture": 1955,
      "ording": 1956,
      "ried": 1957,
      "Ġreport": 1958,
      "Ġdeb": 1959,
      "Ġoffic": 1960,
      "Ġwrong": 1961,
      "Ġdifficult": 1962,
      "Ġmot": 1963,
      "joy": 1964,
      "gs": 1965,
      "Ġmethod": 1966,
      "Ġspace": 1967,
      "Ġnet": 1968,
      "iod": 1969,
      "Ġasked": 1970,
      "Ġearly": 1971,
      "Ġpie": 1972,
      "ler": 1973,
      "Ġsn": 1974,
      "Ġcir": 1975,
      "Ġeasy": 1976,
      "ĠPh": 1977,
      "rew": 1978,
      "Ġenv": 1979,
      "co": 1980,
      "Ġcannot": 1981,
      "Ġsimilar": 1982,
      "Ġsuper": 1983,
      "Ġobject": 1984,
      "Ġnecess": 1985,
      "Ġdue": 1986,
      "âĢĵ": 1987,
      "oud": 1988,
      "Ġbehind": 1989,
      "Ġage": 1990,
      "Ġcity": 1991,
      "Ġacross": 1992,
      "Ġdam": 1993,
      "Ġess": 1994,
      "Ġcause": 1995,
      "Ġaccess": 1996,
      "soci": 1997,
      "Ġkey": 1998,
      "Ġspecial": 1999,
      "oon": 2000,
      "Ġopt": 2001,
      "Ġfight": 2002,
      "iol": 2003,
      "Ġpolitical": 2004,
      "ister": 2005,
      "olution": 2006,
      "Ġitself": 2007,
      "ley": 2008,
      "Ġinstead": 2009,
      "Ġparent": 2010,
      "Ġfunction": 2011,
      "Ġhowever": 2012,
      "Ġenc": 2013,
      "Ġcomb": 2014,
      "istic": 2015,
      "ially": 2016,
      "Ġnorm": 2017,
      "ples": 2018,
      "Ġnews": 2019,
      "ÂłĊ": 2020,
      "Ġhours": 2021,
      "ges": 2022,
      "Ġfav": 2023,
      "resent": 2024,
      "acy": 2025,
      "Ġfig": 2026,
      "Ġtot": 2027,
      "When": 2028,
      "ental": 2029,
      "oose": 2030,
      "Ġdiscuss": 2031,
      "Ġsoft": 2032,
      "Ġupon": 2033,
      "Ġetc": 2034,
      "Ġavailable": 2035,
      "book": 2036,
      "Ġworks": 2037,
      "ands": 2038,
      "Ġsimple": 2039,
      "empt": 2040,
      "orr": 2041,
      "Ġtext": 2042,
      "ires": 2043,
      "like": 2044,
      "ĊĊĊ": 2045,
      "lling": 2046,
      "Ġlocal": 2047,
      "Ġbar": 2048,
      "enn": 2049,
      "ively": 2050,
      "Ġlab": 2051,
      "Ġways": 2052,
      "Ġ199": 2053,
      "Ġcolle": 2054,
      "rect": 2055,
      "Ch": 2056,
      "anks": 2057,
      "Ġbring": 2058,
      "20": 2059,
      "ogn": 2060,
      "Ġred": 2061,
      "Ġresearch": 2062,
      "Ġstay": 2063,
      "Ġexact": 2064,
      "put": 2065,
      "Ġfund": 2066,
      "Ġsaw": 2067,
      "Ġanyone": 2068,
      "ique": 2069,
      "aterial": 2070,
      "Ġmass": 2071,
      "Ġ11": 2072,
      "ived": 2073,
      "une": 2074,
      "oke": 2075,
      "Ġamong": 2076,
      "aining": 2077,
      "Ġmoment": 2078,
      "Ġproblems": 2079,
      "urity": 2080,
      "Ġyourself": 2081,
      "urope": 2082,
      "augh": 2083,
      "Ġtaken": 2084,
      "ites": 2085,
      "fer": 2086,
      "ĠUnited": 2087,
      "Ġhimself": 2088,
      "yn": 2089,
      "Ġwasn": 2090,
      "Ġdest": 2091,
      "Ġ#": 2092,
      "Ġ<": 2093,
      "Ġfield": 2094,
      "Ġstudents": 2095,
      "Ġpersonal": 2096,
      "Ġ:": 2097,
      "Ġespecially": 2098,
      "verse": 2099,
      "Ġgoes": 2100,
      "body": 2101,
      "Ġenjoy": 2102,
      "ued": 2103,
      "Ġcompan": 2104,
      "ĠAm": 2105,
      "Ġmeas": 2106,
      "ĠTe": 2107,
      "Ġauthor": 2108,
      "Ġpick": 2109,
      ".,": 2110,
      "ĠHis": 2111,
      "ledge": 2112,
      "port": 2113,
      "Ġindust": 2114,
      "Ġtakes": 2115,
      "Ġmonths": 2116,
      "oogle": 2117,
      "Ġgirl": 2118,
      "Ġwhite": 2119,
      "ients": 2120,
      "yle": 2121,
      "ĠNow": 2122,
      "unch": 2123,
      "oot": 2124,
      "Ġneeded": 2125,
      "For": 2126,
      "Ġsoci": 2127,
      "iet": 2128,
      "Ġrad": 2129,
      "ume": 2130,
      "Ġwoman": 2131,
      "Ġspend": 2132,
      "Ġperiod": 2133,
      "Ġissue": 2134,
      "ules": 2135,
      "orld": 2136,
      "ift": 2137,
      "Ġfront": 2138,
      "omes": 2139,
      "haps": 2140,
      "ironment": 2141,
      "Ġsum": 2142,
      "irt": 2143,
      "Ġaccept": 2144,
      "asing": 2145,
      "Ġminutes": 2146,
      "Ġgets": 2147,
      "che": 2148,
      "Ġlonger": 2149,
      "Ġquestions": 2150,
      "reme": 2151,
      "Ġneg": 2152,
      "ging": 2153,
      "aced": 2154,
      "ask": 2155,
      "201": 2156,
      "ĠAfter": 2157,
      "Ġstra": 2158,
      "Ġann": 2159,
      "uses": 2160,
      "erc": 2161,
      "Ġsaying": 2162,
      "ibility": 2163,
      "ĠNe": 2164,
      "Ġcred": 2165,
      "ĠWhy": 2166,
      "ĠJohn": 2167,
      "Ġdou": 2168,
      "itting": 2169,
      "ilt": 2170,
      "Ġliving": 2171,
      "ources": 2172,
      "Ġ30": 2173,
      "Ġlink": 2174,
      "ript": 2175,
      "imate": 2176,
      "Ġservice": 2177,
      "Ġrespons": 2178,
      "Ġrelationship": 2179,
      "30": 2180,
      "Ġexc": 2181,
      "Ġdepend": 2182,
      "verage": 2183,
      "ĠThen": 2184,
      "Ġfire": 2185,
      "ude": 2186,
      "ai": 2187,
      "Ġcoming": 2188,
      "light": 2189,
      "Ġcomment": 2190,
      "Ġsignific": 2191,
      "Ġmovie": 2192,
      "Ġarticle": 2193,
      "uly": 2194,
      "Ġdetail": 2195,
      "Ġimm": 2196,
      "Ġoutside": 2197,
      "Ġeduc": 2198,
      "uge": 2199,
      "Ġdeterm": 2200,
      "Ġpolic": 2201,
      "Ġste": 2202,
      "Ġmother": 2203,
      "Ġ*": 2204,
      "Ġground": 2205,
      "Ġdescrib": 2206,
      "ips": 2207,
      "de": 2208,
      "Ġrisk": 2209,
      "itch": 2210,
      "Ġremember": 2211,
      "Ġmaterial": 2212,
      "ĠStates": 2213,
      "ung": 2214,
      "ster": 2215,
      "Ġinside": 2216,
      "Ġcamp": 2217,
      "Ġinclude": 2218,
      "ox": 2219,
      "Ġkids": 2220,
      "Ġdefin": 2221,
      "Ġgeneral": 2222,
      "Ġlanguage": 2223,
      "ateg": 2224,
      "itten": 2225,
      "Ġthinking": 2226,
      "Ġonline": 2227,
      "umb": 2228,
      "iversity": 2229,
      "Ġfurther": 2230,
      "ended": 2231,
      "Ġhigher": 2232,
      "Ġvol": 2233,
      "ĠEurope": 2234,
      "Ġfive": 2235,
      "Ġrele": 2236,
      "Ġmedia": 2237,
      "ecause": 2238,
      "Ġcirc": 2239,
      "pro": 2240,
      "Ġ16": 2241,
      "Ġpoints": 2242,
      "Ġcompl": 2243,
      "itor": 2244,
      "go": 2245,
      "Ġprofess": 2246,
      "son": 2247,
      "ule": 2248,
      "Ġissues": 2249,
      "Ġstuff": 2250,
      "Ġport": 2251,
      "ĠYour": 2252,
      "Ġposition": 2253,
      "Ġlog": 2254,
      "Ġsoon": 2255,
      "val": 2256,
      "Ġworth": 2257,
      "Ġ,": 2258,
      "Ġhope": 2259,
      "Wh": 2260,
      "iding": 2261,
      "Ġheard": 2262,
      "Ġfelt": 2263,
      "Ġapplic": 2264,
      "ĠMan": 2265,
      "ĠPe": 2266,
      "ressed": 2267,
      "Ġfa": 2268,
      "iddle": 2269,
      "Ġstruct": 2270,
      "Ġrelig": 2271,
      "Ġhands": 2272,
      "15": 2273,
      "ĠGr": 2274,
      "ological": 2275,
      "Ġrequire": 2276,
      "fully": 2277,
      "Ġsong": 2278,
      "Ġvarious": 2279,
      "Ġsometimes": 2280,
      "Ġpriv": 2281,
      "ÂłÂłÂłÂłÂłÂłÂłÂł": 2282,
      "ication": 2283,
      "aged": 2284,
      "Ġknew": 2285,
      "Ġleave": 2286,
      "ĠJust": 2287,
      "ĠCol": 2288,
      "Ġones": 2289,
      "Ġblog": 2290,
      "ators": 2291,
      "Ġmillion": 2292,
      "aving": 2293,
      "Ġlost": 2294,
      "osp": 2295,
      "Ġcompanies": 2296,
      "Ġill": 2297,
      "iction": 2298,
      "antly": 2299,
      "Ġvideo": 2300,
      "Ġsleep": 2301,
      "ma": 2302,
      "Ġparty": 2303,
      "lement": 2304,
      "hers": 2305,
      "Ġstudy": 2306,
      "gen": 2307,
      "Ġtar": 2308,
      "vert": 2309,
      "____": 2310,
      "na": 2311,
      "Ġspeak": 2312,
      "Ġbecame": 2313,
      "18": 2314,
      "oved": 2315,
      "Ġweight": 2316,
      "ĠSy": 2317,
      "Ġdeep": 2318,
      "Ġcop": 2319,
      "Ġattempt": 2320,
      "Ġsubject": 2321,
      "Ġresults": 2322,
      "Ġchall": 2323,
      "Ġmyself": 2324,
      "Ġcrit": 2325,
      "ference": 2326,
      "Ġenvironment": 2327,
      "str": 2328,
      "Ġhear": 2329,
      "ĠIm": 2330,
      "Ġlooked": 2331,
      "Ġdevelopment": 2332,
      "Ġ14": 2333,
      "Ġmembers": 2334,
      "gress": 2335,
      "action": 2336,
      "IN": 2337,
      "Ġsens": 2338,
      "Ġperfect": 2339,
      "chie": 2340,
      "medi": 2341,
      "Ġaud": 2342,
      "ĠMr": 2343,
      "Ġeff": 2344,
      "Ġwrite": 2345,
      "Ġprotect": 2346,
      "Ġcompet": 2347,
      "ili": 2348,
      "head": 2349,
      "Ġobs": 2350,
      "Ġ13": 2351,
      "Ġswe": 2352,
      "Ġrunning": 2353,
      "Ġwriting": 2354,
      "face": 2355,
      "13": 2356,
      "raph": 2357,
      "osing": 2358,
      "Ġboy": 2359,
      "Ġ+": 2360,
      "itary": 2361,
      "Ġsort": 2362,
      "Ġx": 2363,
      "ensive": 2364,
      "oms": 2365,
      "ĠAmerica": 2366,
      "ĠCar": 2367,
      "irm": 2368,
      "Ġinde": 2369,
      "Ġimag": 2370,
      "Ġsearch": 2371,
      "atter": 2372,
      "Ġeat": 2373,
      "ĠRes": 2374,
      "lt": 2375,
      "Ġchanges": 2376,
      "cious": 2377,
      "Ġpull": 2378,
      "play": 2379,
      "ables": 2380,
      "Ġviol": 2381,
      "Ġprice": 2382,
      "Ġstore": 2383,
      "Ġhot": 2384,
      "anger": 2385,
      "Ġshare": 2386,
      "lished": 2387,
      "Ġdru": 2388,
      "Ġaff": 2389,
      "Ġoil": 2390,
      "Ġlives": 2391,
      "Ġsat": 2392,
      "ĠâĢĶ": 2393,
      "Ġbeaut": 2394,
      "16": 2395,
      "Ġwebs": 2396,
      "urch": 2397,
      "aves": 2398,
      "Ġmention": 2399,
      "Ġ17": 2400,
      "ĠBy": 2401,
      "eth": 2402,
      "Ġfather": 2403,
      "back": 2404,
      "ises": 2405,
      "overed": 2406,
      "ĠMe": 2407,
      "ĠAf": 2408,
      "Ġserious": 2409,
      "Ġnatural": 2410,
      "Ġlay": 2411,
      "ze": 2412,
      "Ġtalking": 2413,
      "error": 2414,
      "Ġrepresent": 2415,
      "af": 2416,
      "Ġreading": 2417,
      "Ġmaybe": 2418,
      "Ġdark": 2419,
      "Ġ100": 2420,
      "Ġtool": 2421,
      "Ġphone": 2422,
      "AT": 2423,
      "Ġdead": 2424,
      "Ġstat": 2425,
      "Ġaction": 2426,
      "\",": 2427,
      "ĠComm": 2428,
      "Ġtechnology": 2429,
      "ening": 2430,
      "ilities": 2431,
      "Ġaffect": 2432,
      "Ġcode": 2433,
      "oor": 2434,
      "Ġconv": 2435,
      "Ġprote": 2436,
      "ocr": 2437,
      "Ġpage": 2438,
      "amed": 2439,
      "Ġbegan": 2440,
      "Ġpicture": 2441,
      "Ġpack": 2442,
      "ped": 2443,
      "Ġcy": 2444,
      "Ġbrain": 2445,
      "Ġterms": 2446,
      "Ġcomputer": 2447,
      "On": 2448,
      "14": 2449,
      "Ġallow": 2450,
      "Ġreview": 2451,
      "mber": 2452,
      "Ġfile": 2453,
      "Ġtrack": 2454,
      "roll": 2455,
      "Ġcouple": 2456,
      "Ġconcern": 2457,
      "ĠOb": 2458,
      "Ġclean": 2459,
      "Ġgames": 2460,
      "Ġtend": 2461,
      "Ġhappened": 2462,
      "reet": 2463,
      "Ġcontent": 2464,
      "ĠGu": 2465,
      "Ġquickly": 2466,
      "Ġbuilding": 2467,
      "era": 2468,
      "Ġdise": 2469,
      "Ġbehav": 2470,
      "Ġinteresting": 2471,
      "ball": 2472,
      "Ġfollow": 2473,
      "Ġsituation": 2474,
      "Ġrole": 2475,
      "Re": 2476,
      "Ġdiv": 2477,
      "oes": 2478,
      "ences": 2479,
      "Ġcompletely": 2480,
      "lex": 2481,
      "izing": 2482,
      "Ġdig": 2483,
      "Ġpaper": 2484,
      "my": 2485,
      "Ġrate": 2486,
      "Ġcreated": 2487,
      "Ġcard": 2488,
      "Ġconsum": 2489,
      "ĠWar": 2490,
      "ĠFl": 2491,
      "Ġpred": 2492,
      "Ġmach": 2493,
      "Ġrespect": 2494,
      "Ġbed": 2495,
      "17": 2496,
      "Ġpurp": 2497,
      "Ġfocus": 2498,
      "Ġturned": 2499,
      "Ġknowledge": 2500,
      "Ġsun": 2501,
      "ese": 2502,
      "Ġdom": 2503,
      "No": 2504,
      "Ġlower": 2505,
      "Ġcountries": 2506,
      "urance": 2507,
      "icro": 2508,
      "ached": 2509,
      "Ġsqu": 2510,
      "ĠPres": 2511,
      "Ġdrink": 2512,
      "Ã©": 2513,
      "ission": 2514,
      "Ġtable": 2515,
      "Ġdoor": 2516,
      "Ġsize": 2517,
      "Ġcommunity": 2518,
      "That": 2519,
      "ming": 2520,
      "Ġopportun": 2521,
      "Ġbi": 2522,
      "Ġdoc": 2523,
      "Ġinflu": 2524,
      "Ġexperien": 2525,
      "Ġdifference": 2526,
      "Ġslow": 2527,
      "Ġfoot": 2528,
      "ned": 2529,
      "Ġfair": 2530,
      "ĠDon": 2531,
      "Ġpopular": 2532,
      "Ġens": 2533,
      "Al": 2534,
      "Ġsend": 2535,
      "atever": 2536,
      "Ġassoci": 2537,
      "....": 2538,
      "Ġfill": 2539,
      "load": 2540,
      "Ġpercent": 2541,
      "Ġmis": 2542,
      "Ġexactly": 2543,
      "Ġjud": 2544,
      "Ġincrease": 2545,
      "ĠAb": 2546,
      "fort": 2547,
      "ĠQu": 2548,
      "ades": 2549,
      "ems": 2550,
      "ĠApp": 2551,
      "Ġability": 2552,
      "irit": 2553,
      "Ġconcept": 2554,
      "ĠBrit": 2555,
      "Ġblock": 2556,
      "Ġprim": 2557,
      "Ġsite": 2558,
      "Ġep": 2559,
      "Ġforce": 2560,
      "ĠĠĠĠĠĠĠĠĠĠĠĠĠĠĠĠ": 2561,
      "Ġshows": 2562,
      "Ġmodel": 2563,
      "asons": 2564,
      "Ġprevious": 2565,
      "Ġsurpr": 2566,
      "Ġskin": 2567,
      "Ġcoun": 2568,
      "Ġcases": 2569,
      "Ġseries": 2570,
      "itted": 2571,
      "Ġwall": 2572,
      "atures": 2573,
      "Ġoffer": 2574,
      "usion": 2575,
      "Ġtravel": 2576,
      "ffe": 2577,
      "Ġstri": 2578,
      "Ġpotential": 2579,
      "Ġcolor": 2580,
      "come": 2581,
      "ĠSu": 2582,
      "Ġsystems": 2583,
      "Ġrecogn": 2584,
      "Ġemot": 2585,
      "het": 2586,
      "Ġhon": 2587,
      "Ġmanage": 2588,
      "Ġparents": 2589,
      "Ġachie": 2590,
      "Ġoriginal": 2591,
      "Ġcorrect": 2592,
      "Ġinit": 2593,
      "bit": 2594,
      "My": 2595,
      "Ġnice": 2596,
      "Ġtowards": 2597,
      "Ġri": 2598,
      "ground": 2599,
      "ĠWell": 2600,
      "irth": 2601,
      "Ġphysical": 2602,
      "Ġpath": 2603,
      "ement": 2604,
      "Ġappear": 2605,
      "Ġproducts": 2606,
      "apt": 2607,
      "Ġdel": 2608,
      "Ġfavor": 2609,
      "Ġfast": 2610,
      "Ġnature": 2611,
      "Ġsociety": 2612,
      "Ġevidence": 2613,
      "ĠPer": 2614,
      "Ġwonder": 2615,
      "ny": 2616,
      "Ġconnect": 2617,
      "Ġfeeling": 2618,
      "ĠWhile": 2619,
      "aby": 2620,
      "Ġbelow": 2621,
      "rel": 2622,
      "ourn": 2623,
      "Ġregard": 2624,
      "Ġlack": 2625,
      "attle": 2626,
      "pping": 2627,
      "Ġimpact": 2628,
      "Ġtried": 2629,
      "ĠGerm": 2630,
      "Sh": 2631,
      "sych": 2632,
      "ĠWorld": 2633,
      "Ġapproach": 2634,
      "idered": 2635,
      "Ġimage": 2636,
      "Ġpolice": 2637,
      "Ġhit": 2638,
      "ĠEm": 2639,
      "Ġroad": 2640,
      "ober": 2641,
      "Ġquality": 2642,
      "utions": 2643,
      "Ġattention": 2644,
      "ĠÂłĠÂł": 2645,
      "Ġgave": 2646,
      "Ġexcept": 2647,
      "ON": 2648,
      "AN": 2649,
      "ops": 2650,
      "To": 2651,
      "Ġaddress": 2652,
      "gest": 2653,
      "Ġbal": 2654,
      "ivil": 2655,
      "Ġtarget": 2656,
      "Ġbott": 2657,
      "inist": 2658,
      "Ġextra": 2659,
      "Ġsepar": 2660,
      "zy": 2661,
      "ĠInst": 2662,
      "unk": 2663,
      "Ġmeaning": 2664,
      "ĠFe": 2665,
      "reg": 2666,
      "Ġpub": 2667,
      "Ġsource": 2668,
      "Ġlooks": 2669,
      "ĠEn": 2670,
      "oe": 2671,
      "Ġsil": 2672,
      "ĠEven": 2673,
      "Ġloss": 2674,
      "ray": 2675,
      "Ġfinan": 2676,
      "Ġfac": 2677,
      "bl": 2678,
      "ibly": 2679,
      "Ġwritten": 2680,
      "onse": 2681,
      "Ġball": 2682,
      "Ġbooks": 2683,
      "Ġwouldn": 2684,
      "ext": 2685,
      "AR": 2686,
      "Ġcontinue": 2687,
      "sp": 2688,
      "yr": 2689,
      "Ġengine": 2690,
      "Ġfat": 2691,
      "urt": 2692,
      "Ġimprove": 2693,
      "Ġdefe": 2694,
      "ification": 2695,
      "ana": 2696,
      "Ġcoll": 2697,
      "Ġhuge": 2698,
      "Ġdecided": 2699,
      "Ġconsidered": 2700,
      "isc": 2701,
      "200": 2702,
      "Ġemb": 2703,
      "Ġyes": 2704,
      "ĠÂ": 2705,
      "Ġut": 2706,
      "aught": 2707,
      "Ġguy": 2708,
      "Ġimmedi": 2709,
      "Ġlate": 2710,
      "Ġversion": 2711,
      "Ġscient": 2712,
      "Ġcool": 2713,
      "Ġcouldn": 2714,
      "Ġinvolved": 2715,
      "Ġcomplex": 2716,
      "ened": 2717,
      "Ġmorning": 2718,
      "Ġsus": 2719,
      "cul": 2720,
      "hem": 2721,
      "Ġspeed": 2722,
      "oring": 2723,
      "Ġrev": 2724,
      "ĠEnglish": 2725,
      "Ġprin": 2726,
      "ĠWill": 2727,
      "Ġservices": 2728,
      "Ġtown": 2729,
      "Ġeffects": 2730,
      "Ġnecessary": 2731,
      "aff": 2732,
      "Ġthreat": 2733,
      "Ġobvious": 2734,
      "Ġbox": 2735,
      "Ġhappy": 2736,
      "Ġeasily": 2737,
      "Ġparts": 2738,
      "Ġcam": 2739,
      "25": 2740,
      "Ġstru": 2741,
      "Ġpoor": 2742,
      "now": 2743,
      "arily": 2744,
      "eter": 2745,
      "Ġrecomm": 2746,
      "Ġcover": 2747,
      "ran": 2748,
      "ring": 2749,
      "ival": 2750,
      "Ġindustry": 2751,
      "Ġaren": 2752,
      "Ġplaying": 2753,
      "leg": 2754,
      "ĠTw": 2755,
      "Ġce": 2756,
      "Ġmodern": 2757,
      "Ġwants": 2758,
      "itter": 2759,
      "wise": 2760,
      "Ġ25": 2761,
      "Ġeye": 2762,
      "Ġchance": 2763,
      "Ġextreme": 2764,
      "Ġsecurity": 2765,
      "Ġsafe": 2766,
      "just": 2767,
      "Ġhop": 2768,
      "Ġlevels": 2769,
      "Ġforward": 2770,
      "erson": 2771,
      "ĠGe": 2772,
      "Ġrequired": 2773,
      "pite": 2774,
      "icated": 2775,
      "Ġnormal": 2776,
      "Ġfem": 2777,
      "ceed": 2778,
      "lying": 2779,
      "Ġavoid": 2780,
      "ruction": 2781,
      "Ġjo": 2782,
      "Ġhair": 2783,
      "hel": 2784,
      "ha": 2785,
      "Ġ50": 2786,
      "etic": 2787,
      "Ġmilitary": 2788,
      "Ġareas": 2789,
      "Ġprevent": 2790,
      "Ġdream": 2791,
      "Ġreach": 2792,
      "ĠGo": 2793,
      "rest": 2794,
      "Ġcells": 2795,
      "Ġcook": 2796,
      "Ġtit": 2797,
      "Ġregular": 2798,
      "Ġlearning": 2799,
      "Ġbank": 2800,
      "Ġcharacters": 2801,
      "Ġstates": 2802,
      "Ġcat": 2803,
      "Ġprep": 2804,
      "ĠGen": 2805,
      "ĠRuss": 2806,
      "anced": 2807,
      "ĠMc": 2808,
      "iff": 2809,
      "Ġgun": 2810,
      "Ġdraw": 2811,
      "ES": 2812,
      "Ġsold": 2813,
      "more": 2814,
      "oul": 2815,
      "astic": 2816,
      "Ġthird": 2817,
      "ĠYork": 2818,
      "Ġheav": 2819,
      "Ġtou": 2820,
      "Ġestab": 2821,
      "Ġliter": 2822,
      "Ġvict": 2823,
      "ĠEd": 2824,
      "Ġfix": 2825,
      "erve": 2826,
      "Le": 2827,
      "ĠCal": 2828,
      "Ġcredit": 2829,
      "sequ": 2830,
      "ishing": 2831,
      "Ġguess": 2832,
      "Why": 2833,
      "tain": 2834,
      "oph": 2835,
      "aur": 2836,
      "Ġnetwork": 2837,
      "ĠHere": 2838,
      "ĠSec": 2839,
      "Ġrock": 2840,
      "Ġson": 2841,
      "reng": 2842,
      "ysis": 2843,
      "ams": 2844,
      "Ġbur": 2845,
      "ĠMost": 2846,
      "lim": 2847,
      "Ġalone": 2848,
      "Ġge": 2849,
      "ĠOf": 2850,
      "ĠMed": 2851,
      "Ġda": 2852,
      "Ġvot": 2853,
      "Ġculture": 2854,
      "Ġteac": 2855,
      "ari": 2856,
      "Ġcross": 2857,
      "Ġtruth": 2858,
      "Ġple": 2859,
      "itution": 2860,
      "Ġcourt": 2861,
      "Ġsoftware": 2862,
      "artment": 2863,
      "Ġsurv": 2864,
      "ief": 2865,
      "ĠPart": 2866,
      "ĊĊĊĊ": 2867,
      "Ġoccur": 2868,
      "Ġpiece": 2869,
      "uel": 2870,
      "set": 2871,
      "Ġpractice": 2872,
      "inary": 2873,
      "!!": 2874,
      "ĠPresident": 2875,
      "Ġwebsite": 2876,
      "Ġideas": 2877,
      "Ġcand": 2878,
      "icles": 2879,
      "obal": 2880,
      "Ġchoose": 2881,
      "Ġgroups": 2882,
      "oura": 2883,
      "apan": 2884,
      "Ġweeks": 2885,
      "Ġtypes": 2886,
      "They": 2887,
      "Ġdeg": 2888,
      "chan": 2889,
      "amm": 2890,
      "yond": 2891,
      "atory": 2892,
      "ping": 2893,
      "resh": 2894,
      "rict": 2895,
      "Ġnational": 2896,
      "Ġfeed": 2897,
      "Ġchoice": 2898,
      "Ġhost": 2899,
      "Ġgives": 2900,
      "Ġtotal": 2901,
      "Ġbrought": 2902,
      "Ġpresident": 2903,
      "Ġworked": 2904,
      "Ġmultip": 2905,
      "Ġhappens": 2906,
      "Ġmedical": 2907,
      "Ġcontrib": 2908,
      "ĠEvery": 2909,
      "ĠKe": 2910,
      "Ġgrowth": 2911,
      "ĠHer": 2912,
      "using": 2913,
      "Ġdrive": 2914,
      "Ġign": 2915,
      "One": 2916,
      "time": 2917,
      "ĠSch": 2918,
      "olic": 2919,
      "Ġrange": 2920,
      "king": 2921,
      "Ġdecision": 2922,
      "Ġrights": 2923,
      "Ġeconomic": 2924,
      "Ġcontact": 2925,
      "Ġheld": 2926,
      "Ġdro": 2927,
      "Ġfinally": 2928,
      "Ġuser": 2929,
      "Ġevents": 2930,
      "iny": 2931,
      "ĠEar": 2932,
      "olute": 2933,
      "Ġfear": 2934,
      "Ġconvers": 2935,
      "ament": 2936,
      "Ġsix": 2937,
      "Ġrecent": 2938,
      "omb": 2939,
      "Ġphoto": 2940,
      "Ġintrodu": 2941,
      "iday": 2942,
      "Ġresponse": 2943,
      "Ġcollect": 2944,
      "aling": 2945,
      "Ġpurch": 2946,
      "Ġaccording": 2947,
      "Ġsym": 2948,
      "ees": 2949,
      "Ġscience": 2950,
      "Ġcold": 2951,
      "Ġhor": 2952,
      "Ġoffice": 2953,
      "Ġ198": 2954,
      "Ġunderstanding": 2955,
      "Ġinj": 2956,
      "ĠUniversity": 2957,
      "fficient": 2958,
      "gar": 2959,
      "Ġpressure": 2960,
      "hood": 2961,
      "Ġvoice": 2962,
      "Ġbreat": 2963,
      "Ġwhatever": 2964,
      "Ġweb": 2965,
      "tt": 2966,
      "ada": 2967,
      "Ġord": 2968,
      "Ġmiddle": 2969,
      "iful": 2970,
      "Ġpan": 2971,
      "Ġgiving": 2972,
      "cient": 2973,
      "ĠCent": 2974,
      "Ġreasons": 2975,
      "ners": 2976,
      "oses": 2977,
      "Ġperformance": 2978,
      "Ġwide": 2979,
      "Ġsell": 2980,
      "ales": 2981,
      "ĠDr": 2982,
      "Ġperhaps": 2983,
      "Ġ24": 2984,
      "Ġfrequ": 2985,
      "rences": 2986,
      "ivity": 2987,
      "Ġadded": 2988,
      "ino": 2989,
      "ĠĠĠĠĠĠĠ": 2990,
      "uted": 2991,
      "ĠCont": 2992,
      "lear": 2993,
      "Ġcomments": 2994,
      "uments": 2995,
      "rit": 2996,
      "Ġur": 2997,
      "Ġexerc": 2998,
      "Ġmoving": 2999,
      "Ġagre": 3000,
      "Ġgone": 3001,
      "Ġreality": 3002,
      "Ġpolicy": 3003,
      "room": 3004,
      "Ġcertainly": 3005,
      "Ġinsurance": 3006,
      "cell": 3007,
      "Ġleaders": 3008,
      "Ġpositive": 3009,
      "mon": 3010,
      "Ġfell": 3011,
      "su": 3012,
      "ounds": 3013,
      "Ġsett": 3014,
      "Ġmix": 3015,
      "Ġplayers": 3016,
      "Ġnumbers": 3017,
      "Ġbuilt": 3018,
      "add": 3019,
      "OR": 3020,
      "Ġthous": 3021,
      "lier": 3022,
      "Ġseason": 3023,
      "ously": 3024,
      "Ġbase": 3025,
      "Ġarri": 3026,
      "Ġstandard": 3027,
      "ĠBar": 3028,
      "AS": 3029,
      "Ġfinal": 3030,
      "Ġfine": 3031,
      "Ġfit": 3032,
      "ault": 3033,
      "Ġtemper": 3034,
      "Ġemail": 3035,
      "Ġpopulation": 3036,
      "Ġlif": 3037,
      "TS": 3038,
      "ension": 3039,
      "Ġstock": 3040,
      "Ġfigure": 3041,
      "Ġden": 3042,
      "undred": 3043,
      "Ġrules": 3044,
      "ĠDem": 3045,
      "ĠNorth": 3046,
      "Ġstreng": 3047,
      "Ġopin": 3048,
      "Ġinn": 3049,
      "ĠMus": 3050,
      "Ġknows": 3051,
      "ager": 3052,
      "Ġpen": 3053,
      "Ġready": 3054,
      "Ġsignificant": 3055,
      "Ġexec": 3056,
      "Ġtreatment": 3057,
      "Ġfeet": 3058,
      "amb": 3059,
      "Ġdoll": 3060,
      "Ġsubst": 3061,
      "ĠBecause": 3062,
      "ĠUs": 3063,
      "ky": 3064,
      "Ġreve": 3065,
      "Ġaddition": 3066,
      "Ġalthough": 3067,
      "agn": 3068,
      "Ġearth": 3069,
      ".[": 3070,
      "ĠIntern": 3071,
      "fact": 3072,
      "aign": 3073,
      "inc": 3074,
      "oming": 3075,
      "Ġtraining": 3076,
      "ĠChina": 3077,
      "ĠArt": 3078,
      "Ġrecently": 3079,
      "ÂłÂłÂł": 3080,
      "Ġtrust": 3081,
      "Ġallowed": 3082,
      "ĠLet": 3083,
      "Ġgenerally": 3084,
      "rench": 3085,
      "aging": 3086,
      "duct": 3087,
      "Ġconditions": 3088,
      "dom": 3089,
      "Ġdoub": 3090,
      "Ġscreen": 3091,
      "Ġrelated": 3092,
      "Ġteach": 3093,
      "Ġbirth": 3094,
      "Ġsave": 3095,
      "Ġaware": 3096,
      "Ġvisit": 3097,
      "enty": 3098,
      "Ġeducation": 3099,
      "60": 3100,
      "off": 3101,
      "Ġaverage": 3102,
      "Ġcapital": 3103,
      "cies": 3104,
      "Ġplaces": 3105,
      "Ġchanged": 3106,
      "ashing": 3107,
      "Ġuses": 3108,
      "itely": 3109,
      "ĠJan": 3110,
      "iment": 3111,
      "ww": 3112,
      "ĠHar": 3113,
      "Ġdisease": 3114,
      "ĠAfric": 3115,
      "IS": 3116,
      "egr": 3117,
      "40": 3118,
      "Ġten": 3119,
      "udd": 3120,
      "ĠSouth": 3121,
      "inally": 3122,
      "Ġfinancial": 3123,
      "imum": 3124,
      "Ġpsych": 3125,
      "Ġgold": 3126,
      "ĠRepublic": 3127,
      "pir": 3128,
      "ĠYes": 3129,
      "asc": 3130,
      "atives": 3131,
      "22": 3132,
      "Ġproduction": 3133,
      "ription": 3134,
      "Ġagree": 3135,
      "Ġoption": 3136,
      "nes": 3137,
      "ĠAlso": 3138,
      "but": 3139,
      "Ġcapt": 3140,
      "Ġspirit": 3141,
      "Ġstories": 3142,
      "sec": 3143,
      "idge": 3144,
      "Ġpurpose": 3145,
      "ights": 3146,
      "ĠDes": 3147,
      "Ġgas": 3148,
      "aughter": 3149,
      "Ġsuff": 3150,
      "rael": 3151,
      "ĠSm": 3152,
      "Ġbecomes": 3153,
      "Ġfra": 3154,
      "Ġband": 3155,
      "Ġcarry": 3156,
      "Ġwarm": 3157,
      "Ġgoal": 3158,
      "Ġlegal": 3159,
      "Ġdanger": 3160,
      "ĠJew": 3161,
      "imin": 3162,
      "Ġallows": 3163,
      "Ġwait": 3164,
      "Ġwife": 3165,
      "aries": 3166,
      "Ġled": 3167,
      "Ġshot": 3168,
      "osition": 3169,
      "acebook": 3170,
      "Ġweap": 3171,
      "ĠAust": 3172,
      "Ġmovement": 3173,
      "Ġburn": 3174,
      "Ġcit": 3175,
      "//": 3176,
      "bed": 3177,
      "ograp": 3178,
      "ux": 3179,
      "Ġrepe": 3180,
      "ken": 3181,
      "ederal": 3182,
      "Ġrout": 3183,
      "airs": 3184,
      "Ġseemed": 3185,
      "Ġautom": 3186,
      "Ġactual": 3187,
      "ĠJapan": 3188,
      "Ġmist": 3189,
      "ara": 3190,
      "Ġgreen": 3191,
      "Ġmultiple": 3192,
      "Ġstyle": 3193,
      "aly": 3194,
      "Ġchem": 3195,
      "AL": 3196,
      "ropri": 3197,
      "iced": 3198,
      "Ġplayed": 3199,
      "ms": 3200,
      "Ġver": 3201,
      "Is": 3202,
      "Ġprinci": 3203,
      "Ġcry": 3204,
      "ĠJes": 3205,
      "uk": 3206,
      "aul": 3207,
      "ĠInt": 3208,
      "Ġcivil": 3209,
      "zz": 3210,
      "Ġofficial": 3211,
      "iving": 3212,
      "Ġlines": 3213,
      "hib": 3214,
      "Ġbeyond": 3215,
      "Ġdirectly": 3216,
      "ĠAg": 3217,
      "Ġbasic": 3218,
      "ength": 3219,
      "rely": 3220,
      "Ġhundred": 3221,
      "ĠKing": 3222,
      "owers": 3223,
      "Ġinvestig": 3224,
      "Ġformer": 3225,
      "eah": 3226,
      "rupt": 3227,
      "itude": 3228,
      "ald": 3229,
      "Ġstraight": 3230,
      "Ġemer": 3231,
      "Ġund": 3232,
      "Ġbrother": 3233,
      "imately": 3234,
      "Ġunique": 3235,
      "ellig": 3236,
      "nds": 3237,
      "Ġsolution": 3238,
      "EN": 3239,
      "Ġbeginning": 3240,
      "ĠTV": 3241,
      "Ġeffective": 3242,
      "Ġheat": 3243,
      "Ġinstall": 3244,
      "ighb": 3245,
      "Ġir": 3246,
      "key": 3247,
      "Ġcentury": 3248,
      "Ġbenefits": 3249,
      "ĠAct": 3250,
      "Ġslight": 3251,
      "pper": 3252,
      "Ġmessage": 3253,
      "Ġdemon": 3254,
      "how": 3255,
      "Ġparticularly": 3256,
      "ords": 3257,
      "Ġparticip": 3258,
      "Ġrelative": 3259,
      "omp": 3260,
      "Ġnut": 3261,
      "Ġshall": 3262,
      "ĠCo": 3263,
      "Now": 3264,
      "ĠPeople": 3265,
      "Ġunc": 3266,
      "year": 3267,
      "ading": 3268,
      "ancy": 3269,
      "Ġcampaign": 3270,
      "Ġdog": 3271,
      "Ġcast": 3272,
      "ĠPar": 3273,
      "Ġeasier": 3274,
      "Ġdamage": 3275,
      "Ġstrugg": 3276,
      "Ġwhose": 3277,
      "icate": 3278,
      "Ġult": 3279,
      "Ġwrote": 3280,
      "Ġmeant": 3281,
      "Ġlose": 3282,
      "Ġplant": 3283,
      "Ġtheory": 3284,
      "isions": 3285,
      "Ġcondition": 3286,
      "Ġspent": 3287,
      "Ġplayer": 3288,
      "iles": 3289,
      "Ġharm": 3290,
      "Ġhistor": 3291,
      "band": 3292,
      "Con": 3293,
      "Ġabsolute": 3294,
      "Ġthus": 3295,
      "Ġesc": 3296,
      "ograph": 3297,
      "Ġprivate": 3298,
      "ĠMore": 3299,
      "Ġaltern": 3300,
      "lev": 3301,
      "Ġhelps": 3302,
      "ĠAre": 3303,
      "Ġselect": 3304,
      "what": 3305,
      "ĠFrom": 3306,
      "NA": 3307,
      "Ġkilled": 3308,
      "Ġmemory": 3309,
      "Ġcosts": 3310,
      "Ġkept": 3311,
      "Ġmechan": 3312,
      "hern": 3313,
      "Ġstress": 3314,
      "Ġhaven": 3315,
      "Ġnarr": 3316,
      "Ġexplain": 3317,
      "Ġstick": 3318,
      "Ġpattern": 3319,
      "order": 3320,
      "Ġpaid": 3321,
      "ĠTrump": 3322,
      "Ġ197": 3323,
      "23": 3324,
      ");": 3325,
      "Ġbaby": 3326,
      "ests": 3327,
      "oles": 3328,
      "Ġstructure": 3329,
      "Ġclos": 3330,
      "entially": 3331,
      "Ġdemand": 3332,
      "OT": 3333,
      "ournal": 3334,
      "Ġproperty": 3335,
      "24": 3336,
      "Ġmur": 3337,
      "Ġthroughout": 3338,
      "roy": 3339,
      "Ġsurface": 3340,
      "Ġindividuals": 3341,
      "Ġplease": 3342,
      "ĠMin": 3343,
      "Ġguys": 3344,
      "Ġnote": 3345,
      "Ġstar": 3346,
      "à¤": 3347,
      "Ġconsist": 3348,
      "Ġtrou": 3349,
      "ession": 3350,
      "Ġimmediately": 3351,
      "Ġpowerful": 3352,
      "Ġ2012": 3353,
      "Ġanti": 3354,
      "arc": 3355,
      "Ġdeli": 3356,
      "olar": 3357,
      "Be": 3358,
      "mm": 3359,
      "Ġvalues": 3360,
      "Ġunf": 3361,
      "ĠMany": 3362,
      "azing": 3363,
      "Ġshop": 3364,
      "Ġarch": 3365,
      "Ġcomfort": 3366,
      "which": 3367,
      "ae": 3368,
      "ĠEl": 3369,
      "round": 3370,
      "Ġpeace": 3371,
      "Ġdate": 3372,
      "Ġtherefore": 3373,
      "Ġadvant": 3374,
      "Ġsounds": 3375,
      "estern": 3376,
      "Ġactivity": 3377,
      "Ġfeatures": 3378,
      "Ġcontract": 3379,
      "Ġdesigned": 3380,
      "Ġskills": 3381,
      "Ph": 3382,
      "alt": 3383,
      "Ġsupposed": 3384,
      "pre": 3385,
      "Ġdocument": 3386,
      "ech": 3387,
      "ĠSw": 3388,
      "Ġmid": 3389,
      "ĠFirst": 3390,
      "Ġspread": 3391,
      "ĠAny": 3392,
      "Ġtast": 3393,
      "Ġresources": 3394,
      "hold": 3395,
      "Ġnearly": 3396,
      "Ġdie": 3397,
      "Ġanimals": 3398,
      "Ġ40": 3399,
      "Ġneighb": 3400,
      "Ġ21": 3401,
      "Ġbehavior": 3402,
      "oman": 3403,
      "ĠIsrael": 3404,
      "Ġusers": 3405,
      "ĠGl": 3406,
      "She": 3407,
      "Ġhealthy": 3408,
      "At": 3409,
      "Ġbeautiful": 3410,
      "Ġmeasure": 3411,
      "Ġeffort": 3412,
      "Ġmouth": 3413,
      "ero": 3414,
      "Ġopportunity": 3415,
      "Ġoptions": 3416,
      "Ġtal": 3417,
      "ID": 3418,
      "Ġcontr": 3419,
      "Ġensure": 3420,
      "dden": 3421,
      "Ġanalysis": 3422,
      "Ġscene": 3423,
      "ĠBritish": 3424,
      "Ġnation": 3425,
      "aches": 3426,
      "Ġproduce": 3427,
      "Ġincreasing": 3428,
      "Ġlearned": 3429,
      "Ġseeing": 3430,
      "that": 3431,
      "oly": 3432,
      "ores": 3433,
      "ev": 3434,
      "lam": 3435,
      "omen": 3436,
      "ĠState": 3437,
      "iant": 3438,
      "ĠChar": 3439,
      "Ġdeveloped": 3440,
      "itation": 3441,
      "ĠObama": 3442,
      "Ġmember": 3443,
      "Ġmount": 3444,
      "Ex": 3445,
      "Ġassist": 3446,
      "ĠTra": 3447,
      "Ġwat": 3448,
      "uary": 3449,
      "Ġkid": 3450,
      "Google": 3451,
      "By": 3452,
      "iled": 3453,
      "Ġstarting": 3454,
      "Ġmoved": 3455,
      "ĠJesus": 3456,
      "ications": 3457,
      "Ġindepend": 3458,
      "Ġgreater": 3459,
      "Ġimplement": 3460,
      "Ġprogress": 3461,
      "Ġclot": 3462,
      "Ġdistrib": 3463,
      "Ġshoot": 3464,
      "Ġmachine": 3465,
      "Ġtouch": 3466,
      "Ġsudden": 3467,
      "Ġgrand": 3468,
      "Ġveh": 3469,
      "Ġhighly": 3470,
      "Ġprior": 3471,
      "lection": 3472,
      "Ġeventually": 3473,
      "Ġuseful": 3474,
      "ĠDav": 3475,
      "Ġcho": 3476,
      "Ġwood": 3477,
      "Ġscen": 3478,
      "ags": 3479,
      "Ġstudent": 3480,
      "with": 3481,
      "erved": 3482,
      "Ġtrade": 3483,
      "ĠSim": 3484,
      "Ġrecommend": 3485,
      "Ġsecret": 3486,
      ".\"\"": 3487,
      "Ġeconomy": 3488,
      "Ġglobal": 3489,
      "Ġthoughts": 3490,
      "Ġcaused": 3491,
      "ague": 3492,
      "Ġrespond": 3493,
      "Ġcancer": 3494,
      "Ġlik": 3495,
      "Ġgrad": 3496,
      "ĠHouse": 3497,
      "Ġearlier": 3498,
      "aled": 3499,
      "ED": 3500,
      "Ġmatch": 3501,
      "ĠChe": 3502,
      "Ġ2010": 3503,
      "lebr": 3504,
      "Ġcommand": 3505,
      "Ġupd": 3506,
      "Ġshown": 3507,
      "Ġnegative": 3508,
      "All": 3509,
      "itar": 3510,
      "Ġroll": 3511,
      "Ġtruly": 3512,
      "rief": 3513,
      "Ġaspect": 3514,
      "Ġbroad": 3515,
      "Ġonto": 3516,
      "Ġcustomers": 3517,
      "ica": 3518,
      "rand": 3519,
      "Ġboard": 3520,
      "Ġrule": 3521,
      "Ġwish": 3522,
      "edom": 3523,
      "Ġprovided": 3524,
      "Ġliber": 3525,
      "iven": 3526,
      "Ġcollege": 3527,
      "ĠGoogle": 3528,
      "Ġbill": 3529,
      "Ġround": 3530,
      "Ġcitiz": 3531,
      "men": 3532,
      "gn": 3533,
      "Ġvote": 3534,
      "anc": 3535,
      "Ġstage": 3536,
      "Ġborn": 3537,
      "Ġblue": 3538,
      "Ġencoura": 3539,
      "Ġnuc": 3540,
      "Ġvia": 3541,
      "ĠAug": 3542,
      "Ġcreating": 3543,
      "Ġfing": 3544,
      "With": 3545,
      "Ġnames": 3546,
      "ĠCr": 3547,
      "aper": 3548,
      "ĠEarth": 3549,
      "Ġ2011": 3550,
      "rs": 3551,
      "Ġwatching": 3552,
      "Ġclearly": 3553,
      "Ġlarger": 3554,
      "Ġgrowing": 3555,
      "Ġdiet": 3556,
      "Ġadult": 3557,
      "Ġachieve": 3558,
      "nown": 3559,
      "reci": 3560,
      "Ġexpected": 3561,
      "Ġdecl": 3562,
      "ube": 3563,
      "ils": 3564,
      "han": 3565,
      "Ġspecies": 3566,
      "Ġprovides": 3567,
      "Ġmer": 3568,
      "Cl": 3569,
      "ĠCor": 3570,
      "bum": 3571,
      "**": 3572,
      "ĠChristian": 3573,
      "aint": 3574,
      "min": 3575,
      "\".": 3576,
      "Ġforces": 3577,
      "Ġ2008": 3578,
      "atur": 3579,
      "Ġcurrently": 3580,
      "Ġapplication": 3581,
      "enge": 3582,
      "ĠÐ": 3583,
      "ĠComp": 3584,
      "ĠLike": 3585,
      "Ġitems": 3586,
      "Ġassociated": 3587,
      "Ġmob": 3588,
      "Ġbackground": 3589,
      "Ġcup": 3590,
      "Ġbelief": 3591,
      "iling": 3592,
      "Ġprint": 3593,
      "ortunately": 3594,
      "ĠFrench": 3595,
      "Ġinterested": 3596,
      "Ġintegr": 3597,
      "ufact": 3598,
      "Ġdetails": 3599,
      "----": 3600,
      "Ġenter": 3601,
      "board": 3602,
      "Ġsuccessful": 3603,
      "Ġgod": 3604,
      "ĠAdd": 3605,
      "Ġincreased": 3606,
      "Ġassum": 3607,
      "Ġdied": 3608,
      "ulate": 3609,
      "ĠOther": 3610,
      "80": 3611,
      "Ġdaily": 3612,
      "Ġstrength": 3613,
      "Ġlat": 3614,
      "Ġtraditional": 3615,
      "Ġnovel": 3616,
      "Ġimpl": 3617,
      "Ġworse": 3618,
      "Ġplat": 3619,
      "abor": 3620,
      "Ġdrug": 3621,
      "inct": 3622,
      "Ġmajority": 3623,
      "ĠOnce": 3624,
      "Ġlimited": 3625,
      "Ġvac": 3626,
      "Ġnamed": 3627,
      "21": 3628,
      "Ġ23": 3629,
      "Ġmill": 3630,
      "Ġrelease": 3631,
      "Ġinterview": 3632,
      "ĠDis": 3633,
      "ĠMon": 3634,
      "Ġfloor": 3635,
      "Ġmostly": 3636,
      "Ġcontain": 3637,
      "Ġadminist": 3638,
      "orge": 3639,
      "Ġoffe": 3640,
      "Ġwild": 3641,
      "ĠIndia": 3642,
      "AC": 3643,
      "Ġdisp": 3644,
      "Ġlaws": 3645,
      "ĠSpe": 3646,
      "ĠOct": 3647,
      "Ġpassed": 3648,
      "owd": 3649,
      "Ġreduce": 3650,
      "Ġeating": 3651,
      "based": 3652,
      "Ġenem": 3653,
      "Ġspot": 3654,
      "27": 3655,
      "ĠOur": 3656,
      "Ġdefinitely": 3657,
      "Ġtoward": 3658,
      "Ġinternet": 3659,
      "eration": 3660,
      "Ġtask": 3661,
      "Ġcenter": 3662,
      "Not": 3663,
      "Ġrace": 3664,
      "ĠSte": 3665,
      "Ġhus": 3666,
      "IT": 3667,
      "Ġdevice": 3668,
      "ilos": 3669,
      "right": 3670,
      "Ġmentioned": 3671,
      "Ġwilling": 3672,
      "Ġremain": 3673,
      "ani": 3674,
      "Ġ2009": 3675,
      "Un": 3676,
      "inese": 3677,
      "ĠWest": 3678,
      "Ġincome": 3679,
      "Ġtransl": 3680,
      "Ġfollowed": 3681,
      "Ġolder": 3682,
      "Ġvill": 3683,
      "Ġ{": 3684,
      "Ġter": 3685,
      "Ġflu": 3686,
      "Here": 3687,
      "Ġ2013": 3688,
      "Ġbeg": 3689,
      "Ġcustomer": 3690,
      "Ġrequires": 3691,
      "aker": 3692,
      "Ġdirection": 3693,
      "Ġbattle": 3694,
      "Ġreceived": 3695,
      "Ġsequ": 3696,
      "izes": 3697,
      "ĠCons": 3698,
      "rab": 3699,
      "lin": 3700,
      "Ġfully": 3701,
      "Ġnotice": 3702,
      "raft": 3703,
      "Ġappropri": 3704,
      "Ġfiles": 3705,
      "Ġreligious": 3706,
      "mark": 3707,
      "flict": 3708,
      "Ġload": 3709,
      "Ġdisplay": 3710,
      "Ġperm": 3711,
      "Ġforeign": 3712,
      "Ġmanagement": 3713,
      "ĠApr": 3714,
      "ĠPre": 3715,
      "://": 3716,
      "Ġcru": 3717,
      "ady": 3718,
      "26": 3719,
      "orry": 3720,
      "iam": 3721,
      "OS": 3722,
      "ĠOh": 3723,
      "nect": 3724,
      "Ġfavorite": 3725,
      "ĠMark": 3726,
      "Ġpark": 3727,
      "acter": 3728,
      "Ġlength": 3729,
      "Ġcandid": 3730,
      "Ġextremely": 3731,
      "ccording": 3732,
      "orks": 3733,
      "29": 3734,
      "Ġglass": 3735,
      "ĠSince": 3736,
      "ĠNational": 3737,
      "Ġvictim": 3738,
      "Ġcharge": 3739,
      "Ġsam": 3740,
      "iers": 3741,
      "Ġsaf": 3742,
      "AM": 3743,
      "Ġrob": 3744,
      "ĠII": 3745,
      "asion": 3746,
      "Ġmeeting": 3747,
      "Ġstatement": 3748,
      "RE": 3749,
      "Ġcounter": 3750,
      "oday": 3751,
      "ĠSept": 3752,
      "Ġelements": 3753,
      "Ġresist": 3754,
      "Ġfru": 3755,
      "Ġbenefit": 3756,
      "Ġfirm": 3757,
      "Ġactions": 3758,
      "Ġopinion": 3759,
      "Ġvirt": 3760,
      "itable": 3761,
      "Ġfarm": 3762,
      "Ġinstance": 3763,
      "Ġadditional": 3764,
      "Ġarr": 3765,
      "45": 3766,
      "Ġnor": 3767,
      "Ġprofessional": 3768,
      "riage": 3769,
      "Ġang": 3770,
      "Ġsteps": 3771,
      "Ġpatients": 3772,
      "Ġdat": 3773,
      "ĠAmericans": 3774,
      "Ġlots": 3775,
      "Ġtour": 3776,
      "Ġhosp": 3777,
      "Ġinternational": 3778,
      "Ġtitle": 3779,
      "Ġhumans": 3780,
      "Ġbud": 3781,
      "yl": 3782,
      "Ġfactors": 3783,
      "Ġfresh": 3784,
      "vant": 3785,
      "ares": 3786,
      "osis": 3787,
      "Ġchurch": 3788,
      "ategy": 3789,
      "Ġaccur": 3790,
      "Ġ...": 3791,
      "Ġargument": 3792,
      "Ġcelebr": 3793,
      "Ġcontext": 3794,
      "iation": 3795,
      "Ġrich": 3796,
      "Ġble": 3797,
      "iver": 3798,
      "US": 3799,
      "ĠBlack": 3800,
      "IC": 3801,
      "ĠRed": 3802,
      "aven": 3803,
      "ĠWho": 3804,
      "Ġ2016": 3805,
      "que": 3806,
      "iring": 3807,
      "Ġegg": 3808,
      "ael": 3809,
      "Ġprograms": 3810,
      "Ġpus": 3811,
      "Ġapparent": 3812,
      "Ġprec": 3813,
      "you": 3814,
      "Ġpatient": 3815,
      "Some": 3816,
      "Ġdoctor": 3817,
      "Ġ22": 3818,
      "ban": 3819,
      "Ġpun": 3820,
      "Ġbottom": 3821,
      "Ġterror": 3822,
      "Ġintellig": 3823,
      "kay": 3824,
      "Ġrid": 3825,
      "After": 3826,
      "Ġtools": 3827,
      "ustr": 3828,
      "onday": 3829,
      "Ġtrain": 3830,
      "ĠCour": 3831,
      "ifying": 3832,
      "ĠTH": 3833,
      "change": 3834,
      "Ġhero": 3835,
      "Ġstudies": 3836,
      "ls": 3837,
      "bon": 3838,
      "urg": 3839,
      "Ġleading": 3840,
      "isf": 3841,
      "cks": 3842,
      "pective": 3843,
      "Ġaudience": 3844,
      "Ġdry": 3845,
      "Ġcompared": 3846,
      "Ġcompon": 3847,
      "Ġmanufact": 3848,
      "imal": 3849,
      "99": 3850,
      "ĠPol": 3851,
      "Ġ2017": 3852,
      "Ġ2014": 3853,
      "Ġmax": 3854,
      "Ġjobs": 3855,
      "Ġheavy": 3856,
      "Ġacqu": 3857,
      "ĠCity": 3858,
      "Ġtells": 3859,
      "ulated": 3860,
      "Do": 3861,
      "Ġhous": 3862,
      "Ġforms": 3863,
      "ÂŃ": 3864,
      "ek": 3865,
      "Ġtree": 3866,
      "Ġluck": 3867,
      "odies": 3868,
      "Ġinfluence": 3869,
      "Ġcauses": 3870,
      "Ġanaly": 3871,
      "pes": 3872,
      "28": 3873,
      "cast": 3874,
      "Ġprefer": 3875,
      "Ġbrand": 3876,
      "Ġremind": 3877,
      "Ġmicro": 3878,
      "Ġforget": 3879,
      "Ġsexual": 3880,
      "Ġappears": 3881,
      "Ġelectric": 3882,
      "well": 3883,
      "ĠMaybe": 3884,
      "Ġexpress": 3885,
      "Ġsection": 3886,
      "Ġwaiting": 3887,
      "ham": 3888,
      "ett": 3889,
      "Ġdoubt": 3890,
      "Ġlisten": 3891,
      "bing": 3892,
      "Ġbasis": 3893,
      "ocol": 3894,
      "earch": 3895,
      "Ġfaith": 3896,
      "ĠSer": 3897,
      "Ġlimit": 3898,
      "Ġamazing": 3899,
      "Ġdespite": 3900,
      "Ar": 3901,
      "Ġreflect": 3902,
      "Ġsummer": 3903,
      "Ġleaving": 3904,
      "istics": 3905,
      "Ġhonest": 3906,
      "Ġbalance": 3907,
      "Ġreleased": 3908,
      "Ġchalleng": 3909,
      "Ġfemale": 3910,
      "inated": 3911,
      "Ġmethods": 3912,
      "Ġunless": 3913,
      "Ġactivities": 3914,
      "Ġsmaller": 3915,
      "33": 3916,
      "Ġanimal": 3917,
      "Ġexercise": 3918,
      "ĠUK": 3919,
      "eds": 3920,
      "unday": 3921,
      "ĠAustral": 3922,
      "ĠCong": 3923,
      "iber": 3924,
      "ĠDemocr": 3925,
      "Ġfol": 3926,
      "no": 3927,
      "Ġforg": 3928,
      "Ġreceive": 3929,
      "Ġice": 3930,
      "Ġreported": 3931,
      "ometimes": 3932,
      "ĠKore": 3933,
      "Ġfish": 3934,
      "adem": 3935,
      "Ġplatform": 3936,
      "Ġcontinued": 3937,
      "ram": 3938,
      "Ġjump": 3939,
      "Ġasking": 3940,
      "atically": 3941,
      "Ġcalcul": 3942,
      "Ġdestroy": 3943,
      "Ġâ": 3944,
      "Ġincludes": 3945,
      "ĠGreat": 3946,
      "Ġsmart": 3947,
      "wood": 3948,
      "Ġer": 3949,
      "ius": 3950,
      "gu": 3951,
      "umn": 3952,
      "Ġmale": 3953,
      "Ġdecide": 3954,
      "Ġincluded": 3955,
      "Ġconflict": 3956,
      "uman": 3957,
      "Ġregion": 3958,
      "Ġsurround": 3959,
      "Ġcorpor": 3960,
      "rain": 3961,
      "Ġdefend": 3962,
      "Ġqual": 3963,
      "Ġcalls": 3964,
      "Ġsales": 3965,
      "Ġvariety": 3966,
      "Ġlock": 3967,
      "Ġletter": 3968,
      "ris": 3969,
      "Ġsympt": 3970,
      "anch": 3971,
      "Ġweak": 3972,
      "ĠPost": 3973,
      "ĠChinese": 3974,
      "Ġcareer": 3975,
      "ossible": 3976,
      "Ġsetting": 3977,
      "Ġcars": 3978,
      "coh": 3979,
      "Ġsafety": 3980,
      "Ġlocation": 3981,
      "Ġ2018": 3982,
      "ilies": 3983,
      "Ġspl": 3984,
      "Ġappreci": 3985,
      "Well": 3986,
      "Ġrates": 3987,
      "Ġdin": 3988,
      "ugg": 3989,
      "Ġhusband": 3990,
      "oving": 3991,
      "Ġdetermine": 3992,
      "ĠDay": 3993,
      "ronic": 3994,
      "iliar": 3995,
      "icks": 3996,
      "Ġattract": 3997,
      "vey": 3998,
      "ondon": 3999,
      "Ġresponsible": 4000,
      "ij": 4001,
      "Ġpredict": 4002,
      "Ġgain": 4003,
      "apter": 4004,
      "Ġsweet": 4005,
      "Don": 4006,
      "Ġeth": 4007,
      "Ġpublished": 4008,
      "Ġbul": 4009,
      "ĠJune": 4010,
      "tered": 4011,
      "ros": 4012,
      "pret": 4013,
      "Ġdebt": 4014,
      "áĪ": 4015,
      "odes": 4016,
      "Ġfeels": 4017,
      "Ġder": 4018,
      "Ġcoffe": 4019,
      "Ġframe": 4020,
      "iverse": 4021,
      "Ġmut": 4022,
      "Ġing": 4023,
      "vest": 4024,
      "Ġship": 4025,
      "actions": 4026,
      "Ġ2015": 4027,
      "cience": 4028,
      "Ġdegree": 4029,
      "Ġsitting": 4030,
      "Ġtemperature": 4031,
      "Ġaim": 4032,
      "ĠMich": 4033,
      "vere": 4034,
      "ĠJack": 4035,
      "vil": 4036,
      "Ġalbum": 4037,
      "ography": 4038,
      "Ġimagine": 4039,
      "OM": 4040,
      "ovember": 4041,
      "Ġepis": 4042,
      "Ġgar": 4043,
      "Ġwindow": 4044,
      "Ġoverall": 4045,
      "Ġmovies": 4046,
      "Ġconduct": 4047,
      "rig": 4048,
      "Ð°": 4049,
      "Ġcatch": 4050,
      "Ġsoul": 4051,
      "ĠMarch": 4052,
      "Ġmental": 4053,
      "see": 4054,
      "Ġsea": 4055,
      "Ġsugar": 4056,
      "Ġadvantage": 4057,
      "ĠGood": 4058,
      "Ġactive": 4059,
      "Ġherself": 4060,
      "Ġrap": 4061,
      "Ġrefer": 4062,
      "Ġreb": 4063,
      "can": 4064,
      "Ġpet": 4065,
      "ĠAlthough": 4066,
      "Ġslightly": 4067,
      "Ġprimary": 4068,
      "Ġhate": 4069,
      "ĠPal": 4070,
      "down": 4071,
      "Ġbecoming": 4072,
      "Ġrealize": 4073,
      "Ġsymb": 4074,
      "Ġsad": 4075,
      "Ġfreedom": 4076,
      "onym": 4077,
      "Ġconsequ": 4078,
      "ĠSeptember": 4079,
      "Ġcontinu": 4080,
      "Ġstarts": 4081,
      "Ġtelling": 4082,
      "part": 4083,
      "ĠEuropean": 4084,
      "Ġhyp": 4085,
      "Ġvir": 4086,
      "Ġworry": 4087,
      "Ġdriving": 4088,
      "Ġ60": 4089,
      "ĠRec": 4090,
      "Ġworkers": 4091,
      "anging": 4092,
      "Ġahead": 4093,
      "Ġloved": 4094,
      "ĠAugust": 4095,
      "LL": 4096,
      "Ġorganization": 4097,
      "itness": 4098,
      "otic": 4099,
      "Ġdescribed": 4100,
      "Ġcateg": 4101,
      "aming": 4102,
      "cember": 4103,
      "\"\"": 4104,
      "ĠTheir": 4105,
      "Leave": 4106,
      "aked": 4107,
      "Ġshape": 4108,
      "Ġking": 4109,
      "ulf": 4110,
      "Ġgirls": 4111,
      "Ġwhom": 4112,
      "Ġarms": 4113,
      "Ġcoffee": 4114,
      "Ġessential": 4115,
      "Ġstreet": 4116,
      "ties": 4117,
      "ĠJuly": 4118,
      "ĠWhite": 4119,
      "Ġstrategy": 4120,
      "Pro": 4121,
      "oup": 4122,
      "Ġeight": 4123,
      "Ġdemonstr": 4124,
      "Ġadop": 4125,
      "rie": 4126,
      "ym": 4127,
      "Ġplans": 4128,
      "Ġfuck": 4129,
      "org": 4130,
      "Ġflow": 4131,
      "Ġprices": 4132,
      "Ġreplace": 4133,
      "ĠJanuary": 4134,
      "rough": 4135,
      "Ġhar": 4136,
      "Ġfinding": 4137,
      "edd": 4138,
      "hest": 4139,
      "ulations": 4140,
      "rible": 4141,
      "ĠPaul": 4142,
      "Ġputting": 4143,
      "Ġlived": 4144,
      "Ġfederal": 4145,
      "Ġdaughter": 4146,
      "olf": 4147,
      "term": 4148,
      "lied": 4149,
      "Ġconnection": 4150,
      "Ġterr": 4151,
      "Ġ27": 4152,
      "Tw": 4153,
      "Ġchemical": 4154,
      "</": 4155,
      "Ġkeeping": 4156,
      "Ġannoun": 4157,
      "Ġimages": 4158,
      "Ġ>": 4159,
      "Ġspeech": 4160,
      "Ġhelped": 4161,
      "ĠApril": 4162,
      "Ġbeat": 4163,
      "ĠFeb": 4164,
      "Ġdistance": 4165,
      "cles": 4166,
      "Ġapply": 4167,
      "illed": 4168,
      "antic": 4169,
      "la": 4170,
      "Ġcash": 4171,
      "alu": 4172,
      "Ġexpensive": 4173,
      "Yes": 4174,
      "Ġotherwise": 4175,
      "Ġbasically": 4176,
      "Ġdrop": 4177,
      "Ġproduced": 4178,
      "ĠCount": 4179,
      "Ġpossibly": 4180,
      "Ġturns": 4181,
      "Ġbillion": 4182,
      "35": 4183,
      "Ġscript": 4184,
      "ĠStud": 4185,
      "known": 4186,
      "Ġ28": 4187,
      "Ġstaff": 4188,
      "ĠAnt": 4189,
      "Ġremains": 4190,
      "tr": 4191,
      "ico": 4192,
      "Ġhell": 4193,
      "itc": 4194,
      "Oh": 4195,
      "Ġnuclear": 4196,
      "ĠPat": 4197,
      "Ġchallenge": 4198,
      "Ġrat": 4199,
      "Ġcheap": 4200,
      "do": 4201,
      "Ġplanet": 4202,
      "Ġ26": 4203,
      "gment": 4204,
      "Ġthousands": 4205,
      "Ġded": 4206,
      "force": 4207,
      "Ġshowed": 4208,
      "rial": 4209,
      "ashington": 4210,
      "Ġquant": 4211,
      "Ġgraph": 4212,
      "Ġrequest": 4213,
      "ula": 4214,
      "asy": 4215,
      "Ġseparate": 4216,
      "ĠDep": 4217,
      "Ġplants": 4218,
      "ĠIS": 4219,
      "Ġast": 4220,
      "Ġforced": 4221,
      "ĠSam": 4222,
      "Ġstopped": 4223,
      "ternal": 4224,
      "ĠJe": 4225,
      "Ġleader": 4226,
      "igr": 4227,
      "ĠWind": 4228,
      "Ġcommer": 4229,
      "alse": 4230,
      "ĠAc": 4231,
      "Ġcircum": 4232,
      "Ġreligion": 4233,
      "uesday": 4234,
      "ctors": 4235,
      "Ġtim": 4236,
      "Ġmarketing": 4237,
      "Ġaf": 4238,
      "Ġpieces": 4239,
      "Ġleaves": 4240,
      ".'": 4241,
      "Ġid": 4242,
      "rey": 4243,
      "ĠRem": 4244,
      "Ġrise": 4245,
      "Ġdetect": 4246,
      "ingly": 4247,
      "Your": 4248,
      "Ġoffers": 4249,
      "raw": 4250,
      "Ġphilos": 4251,
      "âĢĿ,": 4252,
      "Ġabsolutely": 4253,
      "Ĥ¬": 4254,
      "Ġbird": 4255,
      "anted": 4256,
      "Ġappropriate": 4257,
      "Ġtransform": 4258,
      "iforn": 4259,
      "ĠSen": 4260,
      "Ġfan": 4261,
      "ĠMac": 4262,
      "Ġwear": 4263,
      "orrow": 4264,
      "idents": 4265,
      "Ġfeature": 4266,
      "place": 4267,
      "Ġcompar": 4268,
      "Ġcentral": 4269,
      "Ġsac": 4270,
      "Ġslowly": 4271,
      "Ġreci": 4272,
      "idden": 4273,
      "BC": 4274,
      "Ġparties": 4275,
      "Ġclosed": 4276,
      "ĠEast": 4277,
      "Ġschools": 4278,
      "pire": 4279,
      "Ġdevices": 4280,
      "ĠSan": 4281,
      "Ġstatus": 4282,
      "ĠUp": 4283,
      "aid": 4284,
      "Ġtotally": 4285,
      "uild": 4286,
      "Ġplaced": 4287,
      "Ġprison": 4288,
      "Ġadjust": 4289,
      "Ġtrip": 4290,
      "Ġchanging": 4291,
      "ĠReply": 4292,
      "Ġpleas": 4293,
      "Ġconcent": 4294,
      "Ġadvice": 4295,
      "iminal": 4296,
      "kin": 4297,
      "Ġwealth": 4298,
      "Ġconversation": 4299,
      "Ðµ": 4300,
      "Ġexpression": 4301,
      "Ġyell": 4302,
      "Ġpromot": 4303,
      "Ġfamilies": 4304,
      "Ġcitizens": 4305,
      "Ġanyway": 4306,
      "Ġpictures": 4307,
      "Ġtom": 4308,
      "resp": 4309,
      "Ġclaims": 4310,
      "Im": 4311,
      "Ġprem": 4312,
      "Ġcrime": 4313,
      "Ġmaster": 4314,
      "ĠLaw": 4315,
      "Ġpoll": 4316,
      "isl": 4317,
      "Ġstanding": 4318,
      "ĠGerman": 4319,
      "ios": 4320,
      "ĠVal": 4321,
      "Ġsupply": 4322,
      "Ġminor": 4323,
      "Ġelement": 4324,
      "ĠLondon": 4325,
      "Ġincred": 4326,
      "ynam": 4327,
      "xy": 4328,
      "raq": 4329,
      "________": 4330,
      "Ġcamera": 4331,
      "Ġbound": 4332,
      "Ġreached": 4333,
      "Ġsche": 4334,
      "Ġpresence": 4335,
      "cohol": 4336,
      "Ġpages": 4337,
      "ET": 4338,
      "Ġstream": 4339,
      "Ø§": 4340,
      "Ġsources": 4341,
      "ours": 4342,
      "mas": 4343,
      "ya": 4344,
      "Ġtypically": 4345,
      "Ġfighting": 4346,
      "ĠNet": 4347,
      "ste": 4348,
      "ĠIslam": 4349,
      "ourney": 4350,
      "Ġcards": 4351,
      "Ġbought": 4352,
      "cil": 4353,
      "spe": 4354,
      "Ġvs": 4355,
      "Ġtrouble": 4356,
      "Ġexamples": 4357,
      "Ġfilled": 4358,
      "Ġrand": 4359,
      "Ġdouble": 4360,
      "Ġexcell": 4361,
      "rapy": 4362,
      "Ġconscious": 4363,
      "iques": 4364,
      "Ġsick": 4365,
      "ait": 4366,
      "From": 4367,
      "Ġgoals": 4368,
      "Ġscale": 4369,
      "ĠReg": 4370,
      "While": 4371,
      "Ġsatisf": 4372,
      "oves": 4373,
      "Ġbrief": 4374,
      "Ġhandle": 4375,
      "Ġentirely": 4376,
      "Ġbudget": 4377,
      "wr": 4378,
      "Ġcritical": 4379,
      "Ġcaught": 4380,
      "osite": 4381,
      "ifornia": 4382,
      "ipment": 4383,
      "Ġhurt": 4384,
      "Ġproced": 4385,
      "new": 4386,
      "ĠGet": 4387,
      "ednes": 4388,
      "05": 4389,
      "Ġhappening": 4390,
      "Ġmagn": 4391,
      "Ġdrugs": 4392,
      "AP": 4393,
      "Ġmir": 4394,
      "Ġodd": 4395,
      "ĠNovember": 4396,
      "Ġmaintain": 4397,
      "Ġshock": 4398,
      "Ġmiles": 4399,
      "Ġbiggest": 4400,
      "pat": 4401,
      "Ġserver": 4402,
      "ĠCongress": 4403,
      "Ġpure": 4404,
      "Ġchann": 4405,
      "Ġscientific": 4406,
      "ĠJames": 4407,
      "Ġthank": 4408,
      "ĠCourt": 4409,
      "itute": 4410,
      "appe": 4411,
      "Ġcrowd": 4412,
      "arter": 4413,
      "ĠDavid": 4414,
      "icit": 4415,
      "ashion": 4416,
      "ĠMet": 4417,
      "racy": 4418,
      "Med": 4419,
      "Ġdiscussion": 4420,
      "iable": 4421,
      "eed": 4422,
      "Ġsymptoms": 4423,
      "Ġdigital": 4424,
      "37": 4425,
      "Ġfactor": 4426,
      "ĠIran": 4427,
      "Ġmetal": 4428,
      "Ġpregn": 4429,
      "hens": 4430,
      "Ġdecisions": 4431,
      "ection": 4432,
      "Ġton": 4433,
      "Ð¾": 4434,
      "Ġserve": 4435,
      "ĠFacebook": 4436,
      "Ġemployees": 4437,
      "Ġclick": 4438,
      "Ġbroken": 4439,
      "Ġvision": 4440,
      "rian": 4441,
      "uries": 4442,
      "Ġshut": 4443,
      "Ġrandom": 4444,
      "Ġimpossible": 4445,
      "za": 4446,
      "ĠWashington": 4447,
      "Ġexperiences": 4448,
      "Ġviolence": 4449,
      "ĠLog": 4450,
      "Ġdangerous": 4451,
      "ednesday": 4452,
      "Ġbow": 4453,
      "Ġfaster": 4454,
      "Ġremove": 4455,
      "Ġnone": 4456,
      "Ġequal": 4457,
      "ursday": 4458,
      "Ġminute": 4459,
      "100": 4460,
      "Ġhur": 4461,
      "ĠGree": 4462,
      "upid": 4463,
      "Ġadvert": 4464,
      "ĠTrans": 4465,
      "ails": 4466,
      "OU": 4467,
      "Ġdollars": 4468,
      "Ġpaying": 4469,
      "Ġhospital": 4470,
      "Ġran": 4471,
      "OP": 4472,
      "Ġapart": 4473,
      "Ġfuel": 4474,
      "ĠOctober": 4475,
      "ĠDecember": 4476,
      "lig": 4477,
      "Ġpray": 4478,
      "ĠNews": 4479,
      "mit": 4480,
      "Ġlibr": 4481,
      "gers": 4482,
      "amin": 4483,
      "Ġlabor": 4484,
      "ception": 4485,
      "ĠWhere": 4486,
      "Ġrul": 4487,
      "Ġlatest": 4488,
      "ĠLib": 4489,
      "Ġweapons": 4490,
      "Ġsites": 4491,
      "Ġradio": 4492,
      "Ġstrateg": 4493,
      "Ġsolid": 4494,
      "Ġ2007": 4495,
      "Ġelection": 4496,
      "ĠMuslim": 4497,
      "Ġwalking": 4498,
      "Ġpush": 4499,
      "ĠIraq": 4500,
      "Ġended": 4501,
      "overy": 4502,
      "Ġowners": 4503,
      "Ġevil": 4504,
      "Ġinvestment": 4505,
      "Ġindeed": 4506,
      "illy": 4507,
      "Sc": 4508,
      "izations": 4509,
      "Ġrecords": 4510,
      "Ġcultural": 4511,
      "Ġafford": 4512,
      "ander": 4513,
      "point": 4514,
      "ruary": 4515,
      "Ġisland": 4516,
      "Ġnumer": 4517,
      "ga": 4518,
      "ĠThanks": 4519,
      "Ġmarriage": 4520,
      "ĠInstead": 4521,
      "Ġweather": 4522,
      "Ġshowing": 4523,
      "ĠLord": 4524,
      "De": 4525,
      "Ġholding": 4526,
      "ida": 4527,
      "Ġil": 4528,
      "Ġtick": 4529,
      "Ġquiet": 4530,
      "ï¼": 4531,
      "pen": 4532,
      "Ġspending": 4533,
      "ooth": 4534,
      "ĠBel": 4535,
      "Ġtransport": 4536,
      "craft": 4537,
      "Ġban": 4538,
      "ĠOver": 4539,
      "ixt": 4540,
      "Ġrestaur": 4541,
      "Ġdiscovered": 4542,
      "Ġinitial": 4543,
      "lor": 4544,
      "ĠIndian": 4545,
      "Ġteacher": 4546,
      "Ġfamiliar": 4547,
      "Ġcovered": 4548,
      "ipp": 4549,
      "These": 4550,
      "Ġmotiv": 4551,
      "Bl": 4552,
      "ĠMod": 4553,
      "ortion": 4554,
      "Ġ80": 4555,
      "cont": 4556,
      "Ġseconds": 4557,
      "Ġindic": 4558,
      "ompl": 4559,
      "Ġmort": 4560,
      "Ġ@": 4561,
      "Ġleads": 4562,
      "rees": 4563,
      "Ġcore": 4564,
      "Ġknowing": 4565,
      "Ġtopic": 4566,
      "Ġmissing": 4567,
      "AD": 4568,
      "iance": 4569,
      "Ġpros": 4570,
      "oto": 4571,
      "edy": 4572,
      "Ġmedic": 4573,
      "inn": 4574,
      "Ġpurchase": 4575,
      "Ġfant": 4576,
      "ĠSun": 4577,
      "36": 4578,
      "Ġhom": 4579,
      "Ġstation": 4580,
      "Ġmap": 4581,
      "Ġdesire": 4582,
      "Ġancient": 4583,
      "acity": 4584,
      "Ġassess": 4585,
      "Ġfoods": 4586,
      "ĊĊĊĠ": 4587,
      "rag": 4588,
      "rem": 4589,
      "ipe": 4590,
      "Ġmine": 4591,
      "Ġraised": 4592,
      "ĠBen": 4593,
      "90": 4594,
      "Let": 4595,
      "word": 4596,
      "Ġ)": 4597,
      "Ġtrees": 4598,
      "Ġdatab": 4599,
      "Ġattend": 4600,
      "Ġwaste": 4601,
      "arant": 4602,
      "ria": 4603,
      "Pub": 4604,
      "Tr": 4605,
      "Ġourselves": 4606,
      "onymous": 4607,
      "Qu": 4608,
      "icians": 4609,
      "Ġfamous": 4610,
      "ums": 4611,
      "igned": 4612,
      "Ġfailed": 4613,
      "Ġaccident": 4614,
      "Ġproperly": 4615,
      "Ġsuddenly": 4616,
      "44": 4617,
      "Ġunit": 4618,
      "ĠInc": 4619,
      "arden": 4620,
      "Ġexisting": 4621,
      "Ġcloud": 4622,
      "Ġequipment": 4623,
      "38": 4624,
      "ava": 4625,
      "ka": 4626,
      "field": 4627,
      "vis": 4628,
      "Ġlic": 4629,
      "Ġconserv": 4630,
      "osh": 4631,
      "New": 4632,
      "Ġremoved": 4633,
      "Ġinterpret": 4634,
      "Ġiron": 4635,
      "Ġerror": 4636,
      "equ": 4637,
      "look": 4638,
      "Post": 4639,
      "Ġjudge": 4640,
      "ĠLa": 4641,
      "Ġanswers": 4642,
      "Ġdress": 4643,
      "ĠEach": 4644,
      "Ġarrest": 4645,
      "Ġbelieved": 4646,
      "Ġbelong": 4647,
      "Ġseven": 4648,
      "Ġcommunication": 4649,
      "Ġbuying": 4650,
      "ĠPark": 4651,
      "aturday": 4652,
      "pic": 4653,
      "Ġbag": 4654,
      "Ġsongs": 4655,
      "Ġattacks": 4656,
      "Ġstrange": 4657,
      "Ġoffered": 4658,
      "Ġinstr": 4659,
      "Ġbright": 4660,
      "ads": 4661,
      "Ġnoticed": 4662,
      "Ġgeneration": 4663,
      "itect": 4664,
      "ĠCalifornia": 4665,
      "inter": 4666,
      "Ġthanks": 4667,
      "under": 4668,
      "ING": 4669,
      "ĠFrance": 4670,
      "Ġbodies": 4671,
      "osure": 4672,
      "ĠRo": 4673,
      "ĠInternet": 4674,
      "Ġexperienced": 4675,
      "ĠDoes": 4676,
      "Ġpu": 4677,
      "Ġspeaking": 4678,
      "Ġprojects": 4679,
      "Ġbigger": 4680,
      "ented": 4681,
      "Ġalternative": 4682,
      "Ġflat": 4683,
      "ĠPC": 4684,
      "ĠRussia": 4685,
      "Fr": 4686,
      "Ġ^": 4687,
      "Ġsuspect": 4688,
      "Ġbatter": 4689,
      "Ġefficient": 4690,
      "cket": 4691,
      "Ġclim": 4692,
      "Ġsky": 4693,
      "Ġcontains": 4694,
      "Ġvisual": 4695,
      "Ġfailure": 4696,
      "Ġrain": 4697,
      "Ġmaterials": 4698,
      "Ġveget": 4699,
      "ĠApple": 4700,
      "Ġsand": 4701,
      "Ġprotein": 4702,
      "Ġmanaged": 4703,
      "Ġmo": 4704,
      "Ġ196": 4705,
      "Ġexpand": 4706,
      "Ġopened": 4707,
      "ribe": 4708,
      "Ġfans": 4709,
      "Ġaccompl": 4710,
      "Ġadding": 4711,
      "ĠIts": 4712,
      "ĠEngland": 4713,
      "unction": 4714,
      "Ġdecre": 4715,
      "Ġtight": 4716,
      "Ġsen": 4717,
      "Ġpal": 4718,
      "Ġproviding": 4719,
      "Ġtaste": 4720,
      "Ġdial": 4721,
      "Ġmilk": 4722,
      "Ġjourney": 4723,
      "acing": 4724,
      "Pl": 4725,
      "Ġperspective": 4726,
      "lies": 4727,
      "Ġbond": 4728,
      "39": 4729,
      "Ġsin": 4730,
      "Ġadapt": 4731,
      "ĠCanada": 4732,
      "Ġworst": 4733,
      "Ġspect": 4734,
      "Ġobjects": 4735,
      "Ġconnected": 4736,
      "Ġcopy": 4737,
      "zen": 4738,
      "asp": 4739,
      "akers": 4740,
      "',": 4741,
      "alled": 4742,
      "box": 4743,
      "Ġcris": 4744,
      "encies": 4745,
      "Ġplanning": 4746,
      "Ġbreath": 4747,
      "Ġplot": 4748,
      "Ġmel": 4749,
      "Ab": 4750,
      "Ġdu": 4751,
      "Ġobviously": 4752,
      "night": 4753,
      "Ġclub": 4754,
      "Ġreaction": 4755,
      "ĠThose": 4756,
      "Ġhol": 4757,
      "Ġsides": 4758,
      "Ġcloser": 4759,
      "Ġkick": 4760,
      "Ġunlike": 4761,
      "vention": 4762,
      "ford": 4763,
      "Ġemotional": 4764,
      "Ġ90": 4765,
      "works": 4766,
      "irect": 4767,
      "ĠSee": 4768,
      "ĠÃ": 4769,
      "Ġcalling": 4770,
      "Ġ%": 4771,
      "bre": 4772,
      "Ġefforts": 4773,
      "Ġsch": 4774,
      "ĠServ": 4775,
      "Ġliqu": 4776,
      "Ġsust": 4777,
      "Ġsomewhere": 4778,
      "Ġpolitics": 4779,
      "47": 4780,
      "oking": 4781,
      "Ġidentify": 4782,
      "Ġconcerned": 4783,
      "met": 4784,
      "hetic": 4785,
      "Ġexistence": 4786,
      "iency": 4787,
      "ologies": 4788,
      "Ġexpert": 4789,
      "Ġdownload": 4790,
      "Ġvehicle": 4791,
      "?\"": 4792,
      "ĠHigh": 4793,
      "Ġtransfer": 4794,
      "irty": 4795,
      "ĠGermany": 4796,
      "Ġnotes": 4797,
      "Ġrelatively": 4798,
      "PS": 4799,
      "Ġ29": 4800,
      "Ġnorth": 4801,
      "Ġcriminal": 4802,
      "ĠOut": 4803,
      "Ġfalse": 4804,
      "Ġpair": 4805,
      "ype": 4806,
      "apers": 4807,
      "Ġmodels": 4808,
      "32": 4809,
      "Ġexcellent": 4810,
      "Ġreports": 4811,
      "Ġanx": 4812,
      "Ġreference": 4813,
      "olec": 4814,
      "uration": 4815,
      "Ġmanner": 4816,
      "Ġsymbol": 4817,
      "Ġopening": 4818,
      "erry": 4819,
      "Ġclasses": 4820,
      "ĠBra": 4821,
      "semb": 4822,
      "lder": 4823,
      "Ġswitch": 4824,
      "Ġfunctions": 4825,
      "Ġedge": 4826,
      "Ġcommit": 4827,
      "Ġshared": 4828,
      "Ġclient": 4829,
      "Ġmission": 4830,
      "Ġmuscle": 4831,
      "Ġmeat": 4832,
      "Ġoccup": 4833,
      "Ġjoin": 4834,
      "ĠBo": 4835,
      "Ġcritic": 4836,
      "Ġthick": 4837,
      "ses": 4838,
      "Ġfeelings": 4839,
      "istan": 4840,
      "Ġmulti": 4841,
      "Ġcities": 4842,
      "row": 4843,
      "Ġcontroll": 4844,
      "ĠGeorge": 4845,
      "Ġmassive": 4846,
      "55": 4847,
      "Ġestablished": 4848,
      "ĠBig": 4849,
      "Ġtraffic": 4850,
      "However": 4851,
      "ipped": 4852,
      "Ġreven": 4853,
      "Ġjournal": 4854,
      "Ġamb": 4855,
      "ĠStar": 4856,
      "enses": 4857,
      "=\"": 4858,
      "Ġalcohol": 4859,
      "ferences": 4860,
      "Ġcircumst": 4861,
      "Ġempt": 4862,
      "house": 4863,
      "Ġá": 4864,
      "Ġroot": 4865,
      "ĠMart": 4866,
      "Ġseek": 4867,
      "oyal": 4868,
      "Ġdeveloping": 4869,
      "ki": 4870,
      "II": 4871,
      "Ġreturned": 4872,
      "Ġends": 4873,
      "ĠGovern": 4874,
      "Ġevalu": 4875,
      "ocracy": 4876,
      "Ġincor": 4877,
      "riv": 4878,
      "ĠMex": 4879,
      "Ġapplications": 4880,
      "Ġdescribe": 4881,
      "Ġstupid": 4882,
      "Ġoutput": 4883,
      "Ġrapid": 4884,
      "itz": 4885,
      "ishes": 4886,
      "):": 4887,
      "ĠAlex": 4888,
      "yer": 4889,
      "Ġhearing": 4890,
      "Ġtesting": 4891,
      "ĠBro": 4892,
      "umber": 4893,
      "Ġtrial": 4894,
      "Ġsem": 4895,
      "Ġteams": 4896,
      "Ġstood": 4897,
      "LE": 4898,
      "Ġcrazy": 4899,
      "Ġque": 4900,
      "ĠOff": 4901,
      "Ġstars": 4902,
      "Ġmobile": 4903,
      "Ġlegisl": 4904,
      "Ġhelping": 4905,
      "Ġallowing": 4906,
      "Ġengage": 4907,
      "Ġfacts": 4908,
      "ingu": 4909,
      "ĠSl": 4910,
      "Ġbare": 4911,
      "Ġstret": 4912,
      "Just": 4913,
      "arian": 4914,
      "Ġmagic": 4915,
      "Me": 4916,
      "Ġexplan": 4917,
      "Ġwitness": 4918,
      "Ġinternal": 4919,
      "kend": 4920,
      "Ġwalked": 4921,
      "Ġprotection": 4922,
      "icon": 4923,
      "Ġrot": 4924,
      "Ġ2006": 4925,
      "Ġlargest": 4926,
      "Ġsimpl": 4927,
      "Ġopposite": 4928,
      "isms": 4929,
      "Ġchick": 4930,
      "04": 4931,
      "Ġhtt": 4932,
      "Ġindependent": 4933,
      "07": 4934,
      "Ġinput": 4935,
      "ĠMal": 4936,
      "agon": 4937,
      "Ġ:)": 4938,
      "Ġfinished": 4939,
      "illing": 4940,
      "host": 4941,
      "Ġtrig": 4942,
      "Ġcommercial": 4943,
      "Ġsmell": 4944,
      "ĠAfrica": 4945,
      "08": 4946,
      "Ġdogs": 4947,
      "34": 4948,
      "Can": 4949,
      "mar": 4950,
      "Ġentertain": 4951,
      "erg": 4952,
      "Ġuniverse": 4953,
      "Ġimportance": 4954,
      "Ġfunny": 4955,
      "Ġrough": 4956,
      "ĠConst": 4957,
      "Ġrelationships": 4958,
      "Ġthrow": 4959,
      "iders": 4960,
      "anda": 4961,
      "omy": 4962,
      "Ġearn": 4963,
      "Ġrub": 4964,
      "Com": 4965,
      "while": 4966,
      "Ġappeared": 4967,
      "Ġsets": 4968,
      "Ġdiagn": 4969,
      "aud": 4970,
      "Ġruns": 4971,
      "Ġdifferences": 4972,
      "Ad": 4973,
      "Ġdut": 4974,
      "Ġdim": 4975,
      "Ġdiscover": 4976,
      "ato": 4977,
      "anish": 4978,
      "Ġmarried": 4979,
      "nding": 4980,
      "igure": 4981,
      "Ġtro": 4982,
      "Ġguide": 4983,
      "Ġphen": 4984,
      "Ġsister": 4985,
      "ĠArab": 4986,
      "Ġprove": 4987,
      "ĠWeb": 4988,
      "ĠTime": 4989,
      "ey": 4990,
      "Ġpulled": 4991,
      "soft": 4992,
      "aped": 4993,
      "ĠPM": 4994,
      "Ġteeth": 4995,
      "Ġcontinues": 4996,
      "ĠFebruary": 4997,
      "Ġconstant": 4998,
      "Ġquot": 4999,
      "Ġconcl": 5000,
      "03": 5001,
      "Ġkinds": 5002,
      "Ġvalid": 5003,
      "ado": 5004,
      "Ġbegins": 5005,
      "Then": 5006,
      "Ġrealized": 5007,
      "ĠAss": 5008,
      "Ġtechniques": 5009,
      "she": 5010,
      "Ġposts": 5011,
      "cean": 5012,
      "ĠBook": 5013,
      "ĠMor": 5014,
      "Ġmaint": 5015,
      "Ġwonderful": 5016,
      "pet": 5017,
      "olved": 5018,
      "Ġdefined": 5019,
      "osen": 5020,
      "ĠMag": 5021,
      "Ġcorner": 5022,
      "ancing": 5023,
      "06": 5024,
      "Ġhelpful": 5025,
      "stood": 5026,
      "Ġplenty": 5027,
      "ĠRober": 5028,
      "porary": 5029,
      "Ġilleg": 5030,
      "Ġevolution": 5031,
      "itors": 5032,
      "ĠLook": 5033,
      "ĠChurch": 5034,
      "ache": 5035,
      "iously": 5036,
      "Ġdefinition": 5037,
      "levision": 5038,
      "ĠAP": 5039,
      "ĠMake": 5040,
      "Ġmurder": 5041,
      "onna": 5042,
      "terday": 5043,
      "Ġexchange": 5044,
      "ophy": 5045,
      "Ġexplained": 5046,
      "Ġscore": 5047,
      "Ġconstruct": 5048,
      "berg": 5049,
      "alle": 5050,
      "Ġutil": 5051,
      "Ġregarding": 5052,
      "ĠWhich": 5053,
      "Ġreact": 5054,
      "Ġfle": 5055,
      "Ġshouldn": 5056,
      "Ġapplied": 5057,
      "raid": 5058,
      "phas": 5059,
      "inate": 5060,
      "roid": 5061,
      "Ġprepared": 5062,
      "ror": 5063,
      "ĠMichael": 5064,
      "esome": 5065,
      "Ġplays": 5066,
      "Ġrelevant": 5067,
      "orage": 5068,
      "ĠMicro": 5069,
      "Ġapparently": 5070,
      "ĠSuper": 5071,
      "ĠGold": 5072,
      "Ġestim": 5073,
      "ĠRob": 5074,
      "Ġhistorical": 5075,
      "Ġspecifically": 5076,
      "Ġdynam": 5077,
      "Ġclimate": 5078,
      "Ġpartner": 5079,
      "Ġassume": 5080,
      "Ġhorr": 5081,
      "Ġring": 5082,
      "phone": 5083,
      "Ġwearing": 5084,
      "Ġbusinesses": 5085,
      "48": 5086,
      "Ġfort": 5087,
      "ĠThus": 5088,
      "ĠAM": 5089,
      "09": 5090,
      "fection": 5091,
      "ago": 5092,
      "Ġraise": 5093,
      "Ġdecades": 5094,
      "Ġconstantly": 5095,
      "Ġinterests": 5096,
      "asm": 5097,
      "Ġacid": 5098,
      "fortunately": 5099,
      "ĠOnly": 5100,
      "ĠAir": 5101,
      "ighter": 5102,
      "Cont": 5103,
      "asks": 5104,
      "Ġhyd": 5105,
      "Ġcombination": 5106,
      "Ġwel": 5107,
      "Ġlocated": 5108,
      "ĠYet": 5109,
      "Ġselling": 5110,
      "Ġdriver": 5111,
      "Ġdepending": 5112,
      "Ġsentence": 5113,
      "Ġbes": 5114,
      "Ġfly": 5115,
      "Se": 5116,
      "ĠTur": 5117,
      "ĠDid": 5118,
      "ĠBoth": 5119,
      "ST": 5120,
      "ront": 5121,
      "ario": 5122,
      "02": 5123,
      "Ġtests": 5124,
      "Ġstre": 5125,
      "Ġsnow": 5126,
      "Ġinnov": 5127,
      "Ġalive": 5128,
      "Ġhighest": 5129,
      "Get": 5130,
      "Ġment": 5131,
      "char": 5132,
      "ĠRussian": 5133,
      "ĠRich": 5134,
      "Ġfruit": 5135,
      "Ġfairly": 5136,
      "Ġclothes": 5137,
      "ĠAv": 5138,
      "Ġlie": 5139,
      "ĠTom": 5140,
      "orter": 5141,
      "Ġturning": 5142,
      "Ġdefense": 5143,
      "Ġdeliver": 5144,
      "Ġestablish": 5145,
      "col": 5146,
      "ena": 5147,
      "Ġtiny": 5148,
      "top": 5149,
      "ĠWr": 5150,
      "Ġdance": 5151,
      "Ġwatched": 5152,
      "Ġsmile": 5153,
      "Ġsouth": 5154,
      "Ġexperiment": 5155,
      "edia": 5156,
      "View": 5157,
      "den": 5158,
      "Ġcollection": 5159,
      "Ġboys": 5160,
      "Ġcas": 5161,
      "Ġviews": 5162,
      "usive": 5163,
      "Ġvast": 5164,
      "Ġdebate": 5165,
      "OL": 5166,
      "vin": 5167,
      "rate": 5168,
      "ĠTwo": 5169,
      "Ġadvent": 5170,
      "Ġsigns": 5171,
      "Ġkilling": 5172,
      "Ġanymore": 5173,
      "Ġseriously": 5174,
      "ĠInter": 5175,
      "bal": 5176,
      "Ġprocesses": 5177,
      "Ġcausing": 5178,
      "Ġnav": 5179,
      "Ġwriter": 5180,
      "Ġsav": 5181,
      "Ġusual": 5182,
      "ĠAccording": 5183,
      "aded": 5184,
      "icip": 5185,
      "ĠThank": 5186,
      "Ġbutton": 5187,
      "Ġrelax": 5188,
      "icing": 5189,
      "isation": 5190,
      "Ġtwice": 5191,
      "Ġidentity": 5192,
      "Ġdiss": 5193,
      "ĠAnother": 5194,
      "arp": 5195,
      "Ġunivers": 5196,
      "ĠHealth": 5197,
      "ĠHel": 5198,
      "ship": 5199,
      "Ġdetermined": 5200,
      "Ġitem": 5201,
      "ipping": 5202,
      "Ġrestrict": 5203,
      "Ġcreative": 5204,
      "Ġtow": 5205,
      "Ġanywhere": 5206,
      "olly": 5207,
      "eper": 5208,
      "ĠJapanese": 5209,
      "Ġneck": 5210,
      "Ġmillions": 5211,
      "Ġpolicies": 5212,
      "ĠLife": 5213,
      "ogen": 5214,
      "Ġtur": 5215,
      "Ġthin": 5216,
      "care": 5217,
      "Ġauthority": 5218,
      "race": 5219,
      "Ġexcl": 5220,
      "ĠHave": 5221,
      "Ġflight": 5222,
      "ĠEv": 5223,
      "iot": 5224,
      "ĠHist": 5225,
      "Ġarmy": 5226,
      "ĠUse": 5227,
      "ensity": 5228,
      "free": 5229,
      "sm": 5230,
      "ĠSur": 5231,
      "Ġwinter": 5232,
      "Ġflo": 5233,
      "Ġbehavi": 5234,
      "Ġsight": 5235,
      "Ġepisode": 5236,
      "uit": 5237,
      "Ġforth": 5238,
      "Ġscr": 5239,
      "EC": 5240,
      "ĠPlease": 5241,
      "Ġsomewhat": 5242,
      "Ġinteract": 5243,
      "ĠScholar": 5244,
      "Ġlegs": 5245,
      "Our": 5246,
      "Us": 5247,
      "uh": 5248,
      "Ġmotion": 5249,
      "46": 5250,
      "âĢĿ.": 5251,
      "Ġfilms": 5252,
      "Ġsports": 5253,
      "Ġhorse": 5254,
      "ogue": 5255,
      "Ġplus": 5256,
      "Ġfashion": 5257,
      "Ġflav": 5258,
      "Ġsituations": 5259,
      "Ġmal": 5260,
      "Ġcart": 5261,
      "Ġtaxes": 5262,
      "Ġtreated": 5263,
      "Ġthread": 5264,
      "More": 5265,
      "Ġresponsibility": 5266,
      "gypt": 5267,
      "Ġcomfortable": 5268,
      "ĠWindows": 5269,
      "itory": 5270,
      "ocal": 5271,
      "Ġmoral": 5272,
      "Ġtun": 5273,
      "mail": 5274,
      "Ġsalt": 5275,
      "ĠMat": 5276,
      "ĠUnder": 5277,
      "Pr": 5278,
      "ĠSometimes": 5279,
      "Ġfolks": 5280,
      "Ġuns": 5281,
      "Ġcarried": 5282,
      "Ġcreation": 5283,
      "Ġdisappe": 5284,
      "Ġenemy": 5285,
      "Ġguarant": 5286,
      "Ġexcess": 5287,
      "Ġsomehow": 5288,
      "gery": 5289,
      "Ġphr": 5290,
      "Ġenh": 5291,
      "Ġfixed": 5292,
      "Ġintelligence": 5293,
      "utive": 5294,
      "Ġteen": 5295,
      "49": 5296,
      "hab": 5297,
      "ii": 5298,
      "Ġstim": 5299,
      "itchen": 5300,
      "aks": 5301,
      "Ġrequirements": 5302,
      "Ġloan": 5303,
      "Ġhundreds": 5304,
      "erate": 5305,
      "omas": 5306,
      "ĠParty": 5307,
      "Ġtrick": 5308,
      "Ġadministration": 5309,
      "31": 5310,
      "Ġdatabase": 5311,
      "iety": 5312,
      "ulous": 5313,
      "Ġreduced": 5314,
      "urally": 5315,
      "Sp": 5316,
      "illa": 5317,
      "abet": 5318,
      "ĠDef": 5319,
      "Ġcycle": 5320,
      "Ġgrew": 5321,
      "uy": 5322,
      "arsh": 5323,
      "ĠWestern": 5324,
      "Ġrent": 5325,
      "esh": 5326,
      "ĠTherefore": 5327,
      "Ġnecessarily": 5328,
      "Ġvalu": 5329,
      "Ġcolumn": 5330,
      "Ġbull": 5331,
      "Ġmode": 5332,
      "Ġremark": 5333,
      "Ġlabel": 5334,
      "ĠDNA": 5335,
      "outs": 5336,
      "Ġlies": 5337,
      "Ġrare": 5338,
      "standing": 5339,
      "Ġmatters": 5340,
      "Ġelimin": 5341,
      "Ġminimum": 5342,
      "57": 5343,
      "Ġneither": 5344,
      "Ġafraid": 5345,
      "ĠLu": 5346,
      "ĠRoman": 5347,
      "Ġdinner": 5348,
      "Ġmonitor": 5349,
      "Ġingred": 5350,
      "ita": 5351,
      "Ġphotos": 5352,
      "olve": 5353,
      "hand": 5354,
      "ĠRel": 5355,
      "Ġserved": 5356,
      "erves": 5357,
      "Ġformat": 5358,
      "ini": 5359,
      "estic": 5360,
      "Most": 5361,
      "Ġideal": 5362,
      "ĠDec": 5363,
      "this": 5364,
      "Ġweren": 5365,
      "Ġintended": 5366,
      "utor": 5367,
      "Ġessay": 5368,
      "Ġcontrast": 5369,
      "Ġbacter": 5370,
      "Ġapprox": 5371,
      "ora": 5372,
      "cription": 5373,
      "Ġfocused": 5374,
      "Ġrevolution": 5375,
      "Ġharder": 5376,
      "formation": 5377,
      "Ġpool": 5378,
      "ĠĠĠĠĠĠĠĠĠ": 5379,
      "Ġkeeps": 5380,
      "Ġwine": 5381,
      "Ġneighbor": 5382,
      "Ġtiss": 5383,
      "Ġstandards": 5384,
      "Ġgreatest": 5385,
      "Ġ2005": 5386,
      "Ġcapable": 5387,
      "Ġattrib": 5388,
      "Ġcapacity": 5389,
      "Ġbeauty": 5390,
      "Ġchoices": 5391,
      "istry": 5392,
      "Or": 5393,
      "ta": 5394,
      "Ġdirector": 5395,
      "Ġsignal": 5396,
      "Ġconsult": 5397,
      "ĠSub": 5398,
      "Ġparam": 5399,
      "Ġlosing": 5400,
      "ĠStr": 5401,
      "Ġfif": 5402,
      "respond": 5403,
      "gor": 5404,
      "kes": 5405,
      "Ġseat": 5406,
      "ĠHam": 5407,
      "ĠWhe": 5408,
      "Ġbunch": 5409,
      "Ġthinks": 5410,
      "eding": 5411,
      "ĠAnge": 5412,
      "Ġgrab": 5413,
      "Ġteaching": 5414,
      "Ġshit": 5415,
      "ĠSystem": 5416,
      "outhern": 5417,
      "Ġcontro": 5418,
      "Ġhall": 5419,
      "Ġsyn": 5420,
      "ĠDuring": 5421,
      "Ġowner": 5422,
      "ashed": 5423,
      "rage": 5424,
      "Ġtruck": 5425,
      "Ġpoly": 5426,
      "Ġtaught": 5427,
      "ĠReview": 5428,
      "rog": 5429,
      "ĠAN": 5430,
      "Ġpossibility": 5431,
      "Ġmoments": 5432,
      "Ġwalls": 5433,
      "Ġpossess": 5434,
      "Every": 5435,
      "ĠBush": 5436,
      "Ġfinish": 5437,
      "Ġspiritual": 5438,
      "Ġarchitect": 5439,
      "Ġdefault": 5440,
      "Ġweird": 5441,
      "Ġentry": 5442,
      "Ġcompetition": 5443,
      "ĠJewish": 5444,
      "Ġlistening": 5445,
      "Ġsurprised": 5446,
      "Ġliterally": 5447,
      "rum": 5448,
      "ĠGreen": 5449,
      "56": 5450,
      "Ġvolume": 5451,
      "Ġscientists": 5452,
      "mosp": 5453,
      "ĠBill": 5454,
      "urrent": 5455,
      "Ġjoint": 5456,
      "Ġgro": 5457,
      "Ġempty": 5458,
      "Ġweekend": 5459,
      "ĠGeneral": 5460,
      "oma": 5461,
      "Ġmoves": 5462,
      "Ġescape": 5463,
      "ĠHome": 5464,
      "Ġwrit": 5465,
      "IM": 5466,
      "Ġstorm": 5467,
      "Ġju": 5468,
      "iveness": 5469,
      "Ġstated": 5470,
      "Ġeffectively": 5471,
      "Ġarticles": 5472,
      "Ġpaint": 5473,
      "Ġaccepted": 5474,
      "ĠLat": 5475,
      "First": 5476,
      "Ġbear": 5477,
      "ĠStreet": 5478,
      "Ġtypical": 5479,
      "ĠDa": 5480,
      "ĠProf": 5481,
      "Ġbrown": 5482,
      "Ġresearc": 5483,
      "Ġ2000": 5484,
      "Ġchallenges": 5485,
      "okes": 5486,
      "iate": 5487,
      "idel": 5488,
      "Ġproperties": 5489,
      "Ġstruggle": 5490,
      "IP": 5491,
      "Ġsmooth": 5492,
      "Ġsuggests": 5493,
      "Ġplastic": 5494,
      "Ġfollows": 5495,
      "Ġpreviously": 5496,
      "ĠSchool": 5497,
      "apping": 5498,
      "Ġdrinking": 5499,
      "amental": 5500,
      "Ġfrequently": 5501,
      "Ġsurprise": 5502,
      "wide": 5503,
      "ĠCommun": 5504,
      "Ġstring": 5505,
      "Ġcircumstances": 5506,
      "Ġdepends": 5507,
      "Ġpassion": 5508,
      "OW": 5509,
      "Ġtelevision": 5510,
      "from": 5511,
      "hi": 5512,
      "Ġmolec": 5513,
      "Ġsquare": 5514,
      "Ġoccasion": 5515,
      "ĠChristmas": 5516,
      "Ġaspects": 5517,
      "ĠBet": 5518,
      "Ġsorry": 5519,
      "Ġtradition": 5520,
      "Ġtough": 5521,
      "Ġpresented": 5522,
      "Ġadvanced": 5523,
      "hered": 5524,
      "Ġhunt": 5525,
      "Ġconstruction": 5526,
      "Ġstuck": 5527,
      "Ġclin": 5528,
      "Ġmotor": 5529,
      "Ġcolon": 5530,
      "iest": 5531,
      "Ġevening": 5532,
      "Ġadvance": 5533,
      "Ġforest": 5534,
      "ĠJud": 5535,
      "ĠAfrican": 5536,
      "Ġinvolve": 5537,
      "Ġfunds": 5538,
      "ching": 5539,
      "odd": 5540,
      "Ġnumerous": 5541,
      "ns": 5542,
      "Ġhomes": 5543,
      "anged": 5544,
      "Ġguitar": 5545,
      "Ġvan": 5546,
      "âĢĺ": 5547,
      "Ġabsor": 5548,
      "Ġteachers": 5549,
      "Ġblind": 5550,
      "Ġreaders": 5551,
      "Ġdistinct": 5552,
      "Ġvit": 5553,
      "Ġartist": 5554,
      "Ġsuc": 5555,
      "icted": 5556,
      "Ġ70": 5557,
      "ville": 5558,
      "fast": 5559,
      "Ġrepeated": 5560,
      "Ġcrisis": 5561,
      "ĠMiss": 5562,
      "ĠMary": 5563,
      "Ġbath": 5564,
      "Ġproceed": 5565,
      "Ġobserv": 5566,
      "Ġhat": 5567,
      "ĠEgypt": 5568,
      "Ġbusy": 5569,
      "Ġbrings": 5570,
      "ĠSal": 5571,
      "ĠUSA": 5572,
      "ĠAustralia": 5573,
      "Ġbomb": 5574,
      "ĠPlay": 5575,
      "Ġintroduced": 5576,
      "Ġfields": 5577,
      "ĠToday": 5578,
      "Ġformed": 5579,
      "igration": 5580,
      "ĠMil": 5581,
      "Ġforgot": 5582,
      "Of": 5583,
      "Ġacadem": 5584,
      "Ġpowers": 5585,
      "friend": 5586,
      "Ġsolutions": 5587,
      "ĠÂłĠÂłĠÂłĠÂł": 5588,
      "real": 5589,
      "Ġagreement": 5590,
      "Ġunits": 5591,
      "Ġprofession": 5592,
      "Ġopportunities": 5593,
      "Ġconsidering": 5594,
      "estion": 5595,
      "ï¼Į": 5596,
      "Ġaffected": 5597,
      "Ġje": 5598,
      "rier": 5599,
      "Ġjustice": 5600,
      "ĠSocial": 5601,
      "Ġfootball": 5602,
      "Ġjoy": 5603,
      "ĠPress": 5604,
      "Ġperfectly": 5605,
      "Ġultimately": 5606,
      "Ġride": 5607,
      "cher": 5608,
      "Ġloud": 5609,
      "Ġcarbon": 5610,
      "lock": 5611,
      "ĠDel": 5612,
      "Ġmerely": 5613,
      "Ġnormally": 5614,
      "ĠAtt": 5615,
      "Ġleadership": 5616,
      "life": 5617,
      "Ġlinks": 5618,
      "Ġarrived": 5619,
      "enced": 5620,
      "orthern": 5621,
      "Ġunable": 5622,
      "abilities": 5623,
      "Read": 5624,
      "cons": 5625,
      "ĠEr": 5626,
      "Ġlaugh": 5627,
      "coming": 5628,
      "Ġoperation": 5629,
      "azon": 5630,
      "Ġlibrary": 5631,
      "Ġreform": 5632,
      "Ġoptim": 5633,
      "Ġliked": 5634,
      "ĠST": 5635,
      "Ġcab": 5636,
      "Ġplane": 5637,
      "Ġ/>": 5638,
      "och": 5639,
      "Ġoperations": 5640,
      "ĠJews": 5641,
      "Ġru": 5642,
      "Ġprofit": 5643,
      "Ġbutter": 5644,
      "Ġguard": 5645,
      "nel": 5646,
      "Ġincreases": 5647,
      "Who": 5648,
      "Add": 5649,
      "Ġunderstood": 5650,
      "Ġemphas": 5651,
      "ĠBre": 5652,
      "aph": 5653,
      "EO": 5654,
      "Ġoperating": 5655,
      "Ġchair": 5656,
      "Ġdescription": 5657,
      "Ġpatterns": 5658,
      "pass": 5659,
      "ĠTake": 5660,
      "rim": 5661,
      "Ġclients": 5662,
      "Ġappearance": 5663,
      "ĠWork": 5664,
      "Ġlights": 5665,
      "ĠNOT": 5666,
      "Ġdisci": 5667,
      "gency": 5668,
      "Ġsle": 5669,
      "going": 5670,
      "reate": 5671,
      "ician": 5672,
      "Ġbread": 5673,
      "ĠÎ": 5674,
      "icial": 5675,
      "ĠPort": 5676,
      "Ġbanks": 5677,
      "Ġshift": 5678,
      "Ġsuffering": 5679,
      "Ġskill": 5680,
      "ĠIsland": 5681,
      "orders": 5682,
      "Ġcomponents": 5683,
      "ĠRet": 5684,
      "Ġsubt": 5685,
      "ĠQue": 5686,
      "cknow": 5687,
      "miss": 5688,
      "Ġliquid": 5689,
      "ĠCam": 5690,
      "Ġmedium": 5691,
      "Ġhole": 5692,
      "aching": 5693,
      "ittee": 5694,
      "ĠCD": 5695,
      "Ġperformed": 5696,
      "ĠØ": 5697,
      "Ġtechnical": 5698,
      "arn": 5699,
      "Ġrom": 5700,
      "ĠStep": 5701,
      "ĠRight": 5702,
      "May": 5703,
      "Ã¡": 5704,
      "Ġcrack": 5705,
      "Ġconver": 5706,
      "Ġaid": 5707,
      "Ġatmosp": 5708,
      "bel": 5709,
      "Ġofficials": 5710,
      "Ġproof": 5711,
      "Ġyounger": 5712,
      "ker": 5713,
      "ĠSunday": 5714,
      "Ġsan": 5715,
      "Ġexplore": 5716,
      "rast": 5717,
      "ÂłÂłÂłÂłÂłÂłÂłÂłÂłÂłÂłÂłÂłÂłÂłÂł": 5718,
      "Ġnegot": 5719,
      "Ġokay": 5720,
      "Ġcrew": 5721,
      "Ġsucceed": 5722,
      "Ġspoke": 5723,
      "58": 5724,
      "ĠPeter": 5725,
      "Ġspring": 5726,
      "ona": 5727,
      "UT": 5728,
      "Ġvent": 5729,
      "Ġabuse": 5730,
      "Ġessentially": 5731,
      "Ġsignificantly": 5732,
      "Ġflex": 5733,
      "IV": 5734,
      "EM": 5735,
      "gl": 5736,
      "Ġappoint": 5737,
      "Ġsharing": 5738,
      "inking": 5739,
      "Ġmyth": 5740,
      "Ġchest": 5741,
      "www": 5742,
      "rical": 5743,
      "Ġgather": 5744,
      "Ġstorage": 5745,
      "Ġglad": 5746,
      "Ġmanufacture": 5747,
      "ih": 5748,
      "inger": 5749,
      "ĠArch": 5750,
      "ĠSecond": 5751,
      "Ġfasc": 5752,
      "ĠPerhaps": 5753,
      "ĠRepublican": 5754,
      "then": 5755,
      "inding": 5756,
      "Ġsecure": 5757,
      "isted": 5758,
      "Ġalt": 5759,
      "Ġchart": 5760,
      "ĠUnion": 5761,
      "inating": 5762,
      "Ġaccounts": 5763,
      "gorith": 5764,
      "ĠTechn": 5765,
      "Ġfault": 5766,
      "ĠKorea": 5767,
      "uls": 5768,
      "59": 5769,
      "atural": 5770,
      "ĠAp": 5771,
      "Ġconsequences": 5772,
      "Ġmarkets": 5773,
      "Ġvolunt": 5774,
      "ye": 5775,
      "swe": 5776,
      "Ġdistribution": 5777,
      "Pe": 5778,
      "Ġexists": 5779,
      "Ġdegrees": 5780,
      "ican": 5781,
      "Ġheads": 5782,
      "Ġhabit": 5783,
      "Ġsoldiers": 5784,
      "agers": 5785,
      "tes": 5786,
      "Ġorganizations": 5787,
      "Any": 5788,
      "lets": 5789,
      "Ġcorrespond": 5790,
      "uing": 5791,
      "Ġmeal": 5792,
      "70": 5793,
      "Ġconcerns": 5794,
      "Ġthousand": 5795,
      "Ġcolors": 5796,
      "wing": 5797,
      "Ġtalked": 5798,
      "ĠPet": 5799,
      "rome": 5800,
      "ellect": 5801,
      "Ġspr": 5802,
      "Ġdram": 5803,
      "Ġdrag": 5804,
      "Ġstone": 5805,
      "Ġsolve": 5806,
      "Ġmuscles": 5807,
      "Rel": 5808,
      "âĢ¢": 5809,
      "Ġextent": 5810,
      "Ġmath": 5811,
      "uts": 5812,
      "Ġagreed": 5813,
      "Ġwave": 5814,
      "Ġconvin": 5815,
      "Ġriver": 5816,
      "Ġcandidate": 5817,
      "Ġsuggested": 5818,
      "ceived": 5819,
      "Ġacts": 5820,
      "ĠFrank": 5821,
      "Ġpartners": 5822,
      "ML": 5823,
      "stream": 5824,
      "Ġrecognize": 5825,
      "Please": 5826,
      "asts": 5827,
      "Ġforever": 5828,
      "war": 5829,
      "ĠCoun": 5830,
      "Ed": 5831,
      "alian": 5832,
      "Ġofficer": 5833,
      "Ġtele": 5834,
      "ĠInternational": 5835,
      "Ġvary": 5836,
      "Ġpractices": 5837,
      "Ġtired": 5838,
      "Ð¸": 5839,
      "Ġscream": 5840,
      "Ġshoes": 5841,
      "ĠJoe": 5842,
      "Ġexcited": 5843,
      "],": 5844,
      "Ġvideos": 5845,
      "??": 5846,
      "CH": 5847,
      "cend": 5848,
      "aning": 5849,
      "Ġknock": 5850,
      "Ġmanager": 5851,
      "Ġpicked": 5852,
      "ĠMad": 5853,
      "Ġeverybody": 5854,
      "ructure": 5855,
      "Ġdisapp": 5856,
      "Ġ;": 5857,
      "Ġhighlight": 5858,
      "500": 5859,
      "ocolate": 5860,
      "ĠBas": 5861,
      "Ġfellow": 5862,
      "Ġhasn": 5863,
      "ĠAgain": 5864,
      "water": 5865,
      "related": 5866,
      "Ġeggs": 5867,
      "SS": 5868,
      "Ġsees": 5869,
      "Ġawesome": 5870,
      "efully": 5871,
      "bles": 5872,
      "Ġaside": 5873,
      "Ġspin": 5874,
      "ĠFriday": 5875,
      "pired": 5876,
      "Ġacknow": 5877,
      "Av": 5878,
      "Ġinjury": 5879,
      "win": 5880,
      "Ġkitchen": 5881,
      "Ġbrows": 5882,
      "EL": 5883,
      "ĠFre": 5884,
      "ĠMo": 5885,
      "ĠHy": 5886,
      "Ġwire": 5887,
      "ĠScience": 5888,
      "Americ": 5889,
      "rant": 5890,
      "ĠRev": 5891,
      "ĠFin": 5892,
      "iler": 5893,
      "Ġmac": 5894,
      "Ġgay": 5895,
      "usiness": 5896,
      "Ġmad": 5897,
      "Ġencourage": 5898,
      "ĠDepartment": 5899,
      "Ġphenomen": 5900,
      "Ġweapon": 5901,
      "Ġterrible": 5902,
      "Ġzero": 5903,
      "Ġreader": 5904,
      "Ġstands": 5905,
      "ĠRom": 5906,
      "Ġamounts": 5907,
      "Ġkiss": 5908,
      "Ġbroke": 5909,
      "uthors": 5910,
      "Ġcream": 5911,
      "inton": 5912,
      "ĠTex": 5913,
      "Ġprecise": 5914,
      "Ġletters": 5915,
      "Ġtips": 5916,
      "Ġhouses": 5917,
      "Ġgent": 5918,
      "Ġbell": 5919,
      "apes": 5920,
      "bits": 5921,
      "Ġoccurs": 5922,
      "Ġlayer": 5923,
      "Out": 5924,
      "()": 5925,
      "Ġsynt": 5926,
      "Ġfalling": 5927,
      "Ġhttp": 5928,
      "Ġspell": 5929,
      "isters": 5930,
      "rency": 5931,
      "PubMed": 5932,
      "Ġchain": 5933,
      "ĠTwitter": 5934,
      "See": 5935,
      "Ġpil": 5936,
      "Ġmail": 5937,
      "Ġposted": 5938,
      "Ġexplanation": 5939,
      "Ġyesterday": 5940,
      "Ġsport": 5941,
      "Ġec": 5942,
      "Ġargue": 5943,
      "Ġ31": 5944,
      "Ġdesk": 5945,
      "urd": 5946,
      "Ġadults": 5947,
      "Ġgoods": 5948,
      "Ġmedicine": 5949,
      "omin": 5950,
      "oster": 5951,
      "Ġgradu": 5952,
      "Ġcompre": 5953,
      "adian": 5954,
      "Ġfab": 5955,
      "Ġpayment": 5956,
      "Ġreject": 5957,
      "Ġnoted": 5958,
      "Ġhung": 5959,
      "Ġwid": 5960,
      "ãĢ": 5961,
      "Ġcreates": 5962,
      "Ġlaug": 5963,
      "Ġsurvive": 5964,
      "Ġaccurate": 5965,
      "uous": 5966,
      "ala": 5967,
      "iger": 5968,
      "Ġrank": 5969,
      "Another": 5970,
      "Ġinvolves": 5971,
      "RA": 5972,
      "omething": 5973,
      "Ġsufficient": 5974,
      "oper": 5975,
      "Ġremaining": 5976,
      "Ġlatter": 5977,
      "Ġacting": 5978,
      "Ġnoise": 5979,
      "Ġgrown": 5980,
      "ĠJer": 5981,
      "Ġemotions": 5982,
      "Ġvul": 5983,
      "Ġshad": 5984,
      "ups": 5985,
      "lines": 5986,
      "yan": 5987,
      "Ġdepth": 5988,
      "Ġexperim": 5989,
      "Ġcert": 5990,
      "gent": 5991,
      "Ġillegal": 5992,
      "''": 5993,
      "Ġcarefully": 5994,
      "Ġmeasures": 5995,
      "bor": 5996,
      "andon": 5997,
      "ibilities": 5998,
      "Ġlanguages": 5999,
      "Ġpow": 6000,
      "Ġtwenty": 6001,
      "Ġhidden": 6002,
      "Ġdealing": 6003,
      "Ġdropped": 6004,
      "IA": 6005,
      "Ġsacr": 6006,
      "Ġcontem": 6007,
      "Ġproud": 6008,
      "Facebook": 6009,
      "Ġlargely": 6010,
      "Ġpassing": 6011,
      "Ġfundamental": 6012,
      "Ġdelic": 6013,
      "Ġtechnique": 6014,
      "cel": 6015,
      "Are": 6016,
      "Ġasks": 6017,
      "sey": 6018,
      "Ġjoined": 6019,
      "Ġfinds": 6020,
      "tra": 6021,
      "state": 6022,
      "Ġrestaurant": 6023,
      "they": 6024,
      "Ind": 6025,
      "Ġvaluable": 6026,
      "Ġheight": 6027,
      "ĠTre": 6028,
      "Ġsupported": 6029,
      "press": 6030,
      "net": 6031,
      "Ġbringing": 6032,
      "Ġfingers": 6033,
      "Ġfro": 6034,
      "Ġgarden": 6035,
      "Ġoffering": 6036,
      "Ġsurgery": 6037,
      "Ġsolar": 6038,
      "Ġgonna": 6039,
      "Ġgene": 6040,
      "Ġmaximum": 6041,
      "Ġyouth": 6042,
      "Ġcommonly": 6043,
      "ĠâĢ¦": 6044,
      "Ġupper": 6045,
      "ĠCath": 6046,
      "Ġcombined": 6047,
      "Ġenvironmental": 6048,
      "ĠArticle": 6049,
      "Ġperman": 6050,
      "Ġgenerate": 6051,
      "power": 6052,
      "Ġcro": 6053,
      "ĠLou": 6054,
      "Ġroutine": 6055,
      "Ġsevere": 6056,
      "Ġstom": 6057,
      "ĠBer": 6058,
      "ĠÂ£": 6059,
      "Ġresistance": 6060,
      "Ġyellow": 6061,
      "Ġ35": 6062,
      "ĠOld": 6063,
      "cript": 6064,
      "Ġtasks": 6065,
      "Ġconven": 6066,
      "tion": 6067,
      "Ġerr": 6068,
      "raction": 6069,
      "ints": 6070,
      "ĠLast": 6071,
      "ructions": 6072,
      "Ġobt": 6073,
      "Ġborder": 6074,
      "Ġmainly": 6075,
      "ĠAI": 6076,
      "aze": 6077,
      "ĠPhil": 6078,
      "Ġautomatically": 6079,
      "Ġcraft": 6080,
      "ĠWall": 6081,
      "Ġtheme": 6082,
      "Ġtone": 6083,
      "Ġequival": 6084,
      "Ġmistake": 6085,
      "Monday": 6086,
      "Ġeffic": 6087,
      "ifts": 6088,
      "Ġofficers": 6089,
      "ĠVol": 6090,
      "Ġsurprising": 6091,
      "Ġexplains": 6092,
      "Ġnaturally": 6093,
      "Ġreasonable": 6094,
      "ĠAC": 6095,
      "Ġpractical": 6096,
      "Ġsale": 6097,
      "ocation": 6098,
      "Ġcomplicated": 6099,
      "ÑĤ": 6100,
      "isher": 6101,
      "Ġgotten": 6102,
      "Ġidentified": 6103,
      "Ġappreciate": 6104,
      "En": 6105,
      "UR": 6106,
      "Ġisol": 6107,
      "ĠTim": 6108,
      "Des": 6109,
      "Ġhang": 6110,
      "Ġextend": 6111,
      "Ġdistrict": 6112,
      "Ġmoon": 6113,
      "Ġeverywhere": 6114,
      "Ġbuildings": 6115,
      "elf": 6116,
      "whel": 6117,
      "ĠCenter": 6118,
      "nic": 6119,
      "Ġtrib": 6120,
      "Ġtransm": 6121,
      "42": 6122,
      "ĠBible": 6123,
      "Ġinstit": 6124,
      "Ġnations": 6125,
      "Even": 6126,
      "Ġcommunities": 6127,
      "Ġswim": 6128,
      "ĠBefore": 6129,
      "ĠTimes": 6130,
      "ormal": 6131,
      "Ġå": 6132,
      "Ġreplaced": 6133,
      "Ġtall": 6134,
      "rogen": 6135,
      "azine": 6136,
      "Ġrevealed": 6137,
      "een": 6138,
      "ĠMa": 6139,
      "ĠDet": 6140,
      "ĠSil": 6141,
      "Ġalle": 6142,
      "Ġagent": 6143,
      "Ġgift": 6144,
      "ensions": 6145,
      "Ġnobody": 6146,
      "Ġ2004": 6147,
      "Ġtherapy": 6148,
      "dule": 6149,
      "Ġstores": 6150,
      "Ġangry": 6151,
      "oral": 6152,
      "level": 6153,
      "Ġgender": 6154,
      "Ġvillage": 6155,
      "ĠCounty": 6156,
      "ĠDi": 6157,
      "Ġimpress": 6158,
      "43": 6159,
      "Ġath": 6160,
      "Ġcollabor": 6161,
      "ĠSk": 6162,
      "Ġbab": 6163,
      "Ġhadn": 6164,
      "appy": 6165,
      "Ġalgorith": 6166,
      "Ġstreets": 6167,
      "Ġshooting": 6168,
      "uster": 6169,
      "bert": 6170,
      "75": 6171,
      "Ġtables": 6172,
      "Ġindex": 6173,
      "Where": 6174,
      "Ġsuck": 6175,
      "ĠSar": 6176,
      "Ġhide": 6177,
      "Ġprinciple": 6178,
      "uting": 6179,
      "Ġartists": 6180,
      "Ġfool": 6181,
      "ĠCap": 6182,
      "ĠHill": 6183,
      "Ġreferred": 6184,
      "Ġpin": 6185,
      "cers": 6186,
      "Ġ500": 6187,
      "ĠBack": 6188,
      "Ġdocuments": 6189,
      "Ġfigures": 6190,
      "ĠVir": 6191,
      "Ġconfidence": 6192,
      "ĠIP": 6193,
      "obe": 6194,
      "Ġresulting": 6195,
      "Ġphase": 6196,
      "41": 6197,
      "ĊĊĊĠĠĠ": 6198,
      "Ġdoctors": 6199,
      "Ġsustain": 6200,
      "95": 6201,
      "Ġconfig": 6202,
      "ĠCentral": 6203,
      "Ġsplit": 6204,
      "ĠJul": 6205,
      "Many": 6206,
      "rated": 6207,
      "ĠAssoci": 6208,
      "ĠBritain": 6209,
      "igation": 6210,
      "Ġcommitted": 6211,
      "who": 6212,
      "Ġsuit": 6213,
      "zing": 6214,
      "ĠFore": 6215,
      "ĠFree": 6216,
      "Ġunknown": 6217,
      "Ġobserved": 6218,
      "Ġoblig": 6219,
      "oken": 6220,
      "Ġconvention": 6221,
      "Ġlikes": 6222,
      "Ġmessages": 6223,
      "Ġintention": 6224,
      "Ġsmoke": 6225,
      "Ġpointed": 6226,
      "ĠPower": 6227,
      "hesis": 6228,
      "ola": 6229,
      "Ġreturns": 6230,
      "Ġtrading": 6231,
      "ĠScott": 6232,
      "ĠTHE": 6233,
      "Ġnewsp": 6234,
      "Ġcock": 6235,
      "Ġdreams": 6236,
      "ĠKeep": 6237,
      "yright": 6238,
      "ĠRobert": 6239,
      "ĠSmith": 6240,
      "ĠNever": 6241,
      "onic": 6242,
      "Ġsuffer": 6243,
      "Ġsample": 6244,
      "iat": 6245,
      "Ġpositions": 6246,
      "apped": 6247,
      "Ġfinger": 6248,
      "Ġdad": 6249,
      "ano": 6250,
      "omic": 6251,
      "Ġgrass": 6252,
      "bra": 6253,
      "Ġplain": 6254,
      "Ġboat": 6255,
      "Ġera": 6256,
      "Ġbeliefs": 6257,
      "Ġencoun": 6258,
      "Ġfeat": 6259,
      "Ġpackage": 6260,
      "Ġsaved": 6261,
      "orney": 6262,
      "ulating": 6263,
      "ĠLove": 6264,
      "reens": 6265,
      "Ġsomebody": 6266,
      "ishment": 6267,
      "Ġemotion": 6268,
      "Ġmanip": 6269,
      "Ġtox": 6270,
      "Ġinner": 6271,
      "Ġanxiety": 6272,
      "Ġtail": 6273,
      "ĠTop": 6274,
      "Ġexternal": 6275,
      "ĠIns": 6276,
      "Ġcareful": 6277,
      "Ġchannel": 6278,
      "ĠTor": 6279,
      "ĠSing": 6280,
      "Ġchosen": 6281,
      "ura": 6282,
      "ĠMicrosoft": 6283,
      "Ġdetailed": 6284,
      "ĠHall": 6285,
      "ilty": 6286,
      "ĠĠĠĠĠĠĠĠĠĠĠ": 6287,
      "Ġlaunch": 6288,
      "ĠYear": 6289,
      "Ġmachines": 6290,
      "Ġremote": 6291,
      "\")": 6292,
      "Ġopposed": 6293,
      "fall": 6294,
      "Ġenjoyed": 6295,
      "ston": 6296,
      "Ġoccurred": 6297,
      "weet": 6298,
      "rid": 6299,
      "Ġreward": 6300,
      "Ġchicken": 6301,
      "Ġillness": 6302,
      "bar": 6303,
      "Ġcoast": 6304,
      "Ġcharges": 6305,
      "Ñģ": 6306,
      "aa": 6307,
      "mes": 6308,
      "pal": 6309,
      "Ġdivid": 6310,
      "burg": 6311,
      "Ġintent": 6312,
      "ĠResearch": 6313,
      "Ġintellect": 6314,
      "Ġchief": 6315,
      "inent": 6316,
      "Ġwheel": 6317,
      "Ġuniversity": 6318,
      "Ġvictims": 6319,
      "oration": 6320,
      "Ġgall": 6321,
      "Ġpurposes": 6322,
      "born": 6323,
      "Ġsole": 6324,
      "Ġpump": 6325,
      "ĠMcC": 6326,
      "ĠGreek": 6327,
      "rete": 6328,
      "Ġpersonally": 6329,
      "Ġsequence": 6330,
      "Gen": 6331,
      "ĠAut": 6332,
      "itutional": 6333,
      "66": 6334,
      "IG": 6335,
      "ml": 6336,
      "Ġselection": 6337,
      "ĠAbout": 6338,
      "==": 6339,
      "Ġcere": 6340,
      "Res": 6341,
      "Ġdust": 6342,
      "Ġportion": 6343,
      "AA": 6344,
      "Ġholds": 6345,
      "rd": 6346,
      "Ġsubstant": 6347,
      "ette": 6348,
      "Ġunw": 6349,
      "Connect": 6350,
      "Ġremained": 6351,
      "Ġconsumer": 6352,
      "stein": 6353,
      "Twitter": 6354,
      "Ġexperts": 6355,
      "Tuesday": 6356,
      "Ġske": 6357,
      "Ġbreaking": 6358,
      "Ġannoy": 6359,
      "Ġprinciples": 6360,
      "Ġmyst": 6361,
      "Ġgenes": 6362,
      "Ġwet": 6363,
      "Ġdiseases": 6364,
      "Ġmood": 6365,
      "Ġblame": 6366,
      "Ġdepression": 6367,
      "ĠMiddle": 6368,
      "Ġpromise": 6369,
      "Ġboss": 6370,
      "Ġclassic": 6371,
      "Ġdisappoint": 6372,
      "Go": 6373,
      "Ġoriginally": 6374,
      "Ġinnoc": 6375,
      "Ġconclud": 6376,
      "ĠBob": 6377,
      "Ġquarter": 6378,
      "Ġinspir": 6379,
      "osm": 6380,
      "78": 6381,
      "nce": 6382,
      "ifies": 6383,
      "MS": 6384,
      "bi": 6385,
      "Ġgrav": 6386,
      "Ġputs": 6387,
      "ĠIr": 6388,
      "Ġwal": 6389,
      "resents": 6390,
      "Ġplate": 6391,
      "OD": 6392,
      "Ġwindows": 6393,
      "Ġincident": 6394,
      "ushed": 6395,
      "Ġ45": 6396,
      "osal": 6397,
      "Ġbattery": 6398,
      "Ġdepartment": 6399,
      "Ġattached": 6400,
      "xygen": 6401,
      "Ġcharged": 6402,
      "Ġcorporate": 6403,
      "Ġcomparison": 6404,
      "Ġboost": 6405,
      "Ġtries": 6406,
      "Ġresearchers": 6407,
      "IL": 6408,
      "eless": 6409,
      "Ġtea": 6410,
      "Ġbat": 6411,
      "Ġabandon": 6412,
      "Ġtact": 6413,
      "ĠMen": 6414,
      "ĠTest": 6415,
      "Ġflag": 6416,
      "ION": 6417,
      "Ġsoil": 6418,
      "Ġexhib": 6419,
      "orters": 6420,
      "Ġcoverage": 6421,
      "aniel": 6422,
      "Ġprocessing": 6423,
      "Ġoppon": 6424,
      "Ġadmit": 6425,
      "ĠTexas": 6426,
      "iller": 6427,
      "Ġneut": 6428,
      "Ġroof": 6429,
      "edding": 6430,
      "Ġflying": 6431,
      "sters": 6432,
      "ĠJo": 6433,
      "ĠSpanish": 6434,
      "ĠUnfortunately": 6435,
      "class": 6436,
      "Ġlunch": 6437,
      "ĠIN": 6438,
      "Ġcheese": 6439,
      "Ġstructures": 6440,
      "Ġpotentially": 6441,
      "Ġrecommended": 6442,
      "Ġroute": 6443,
      "Man": 6444,
      "Ġrac": 6445,
      "Ġdestroyed": 6446,
      "Ġproposed": 6447,
      "Ġconsumption": 6448,
      "Ġbelieves": 6449,
      "Ġstro": 6450,
      "Once": 6451,
      "lishing": 6452,
      "Ġquote": 6453,
      "umps": 6454,
      "Ġmixed": 6455,
      "Ġwondering": 6456,
      "Ġbone": 6457,
      "aws": 6458,
      "was": 6459,
      "Ġarguments": 6460,
      "Su": 6461,
      "Ġmissed": 6462,
      "ĠRock": 6463,
      "anges": 6464,
      "92": 6465,
      "ĠMonday": 6466,
      "ulture": 6467,
      "Ġpill": 6468,
      "ĠPlan": 6469,
      "Ġcombat": 6470,
      "Ġseeking": 6471,
      "Ġorigin": 6472,
      "Ġrein": 6473,
      "ĠTy": 6474,
      "road": 6475,
      "ifest": 6476,
      "Ġrarely": 6477,
      "Ġdesper": 6478,
      "car": 6479,
      "Ġtank": 6480,
      "Ġimper": 6481,
      "Phone": 6482,
      "ĠGovernment": 6483,
      "orse": 6484,
      "Ġdemocracy": 6485,
      "Ġwake": 6486,
      "Ġstronger": 6487,
      "Ġmountain": 6488,
      "ĠSol": 6489,
      "Ġexception": 6490,
      "ĠJim": 6491,
      "Ġoverwhel": 6492,
      "Ġcomputers": 6493,
      "Ġassemb": 6494,
      "Ġingredients": 6495,
      "unning": 6496,
      "Ġbless": 6497,
      "Ġhardware": 6498,
      "Ġprofile": 6499,
      "Ġregularly": 6500,
      "ĠOpen": 6501,
      "Ġvisible": 6502,
      "cr": 6503,
      "itate": 6504,
      "Ġstomach": 6505,
      "Ġbon": 6506,
      "icago": 6507,
      "Ġexposed": 6508,
      "Ġincorpor": 6509,
      "ĠID": 6510,
      "Ġvo": 6511,
      "Wednesday": 6512,
      "Ġdecent": 6513,
      "Ġnom": 6514,
      "ĠUN": 6515,
      "Ġshel": 6516,
      "Ġpoet": 6517,
      "Ġsuppose": 6518,
      "Ġadvoc": 6519,
      "pected": 6520,
      "Ġlegit": 6521,
      "Ġtomorrow": 6522,
      "Ġsession": 6523,
      "iki": 6524,
      "ologist": 6525,
      "Ġentered": 6526,
      "rary": 6527,
      "Ġfeedback": 6528,
      "gend": 6529,
      "list": 6530,
      "Ġdisag": 6531,
      "Ġshopping": 6532,
      "BS": 6533,
      "Ġinvestigation": 6534,
      "Ġnative": 6535,
      "ÂłĠ": 6536,
      "oding": 6537,
      "anna": 6538,
      "Ġorders": 6539,
      "Ġchose": 6540,
      "ĠGrand": 6541,
      "Ġeditor": 6542,
      "Ġclosely": 6543,
      "Ġclaimed": 6544,
      "Ġdish": 6545,
      "Ġexposure": 6546,
      "comm": 6547,
      "ught": 6548,
      "acle": 6549,
      "iated": 6550,
      "Ġdiscussed": 6551,
      "ĠId": 6552,
      "Ġcontrolled": 6553,
      "Ġgiant": 6554,
      "Ġinvent": 6555,
      "nam": 6556,
      "Ã¤": 6557,
      "ĠBrown": 6558,
      "Ġ2003": 6559,
      "OC": 6560,
      "Ġtort": 6561,
      "Â°": 6562,
      "Ġfaces": 6563,
      "Ġfavour": 6564,
      "Ġrepresents": 6565,
      "ĠSat": 6566,
      "Ġscenes": 6567,
      "haust": 6568,
      "inet": 6569,
      "Ġrecorded": 6570,
      "Ġgrade": 6571,
      "ket": 6572,
      "Ġvib": 6573,
      "Ġinstrument": 6574,
      "Ġattempts": 6575,
      "Ġconfirm": 6576,
      "Ġyeah": 6577,
      "ĠSum": 6578,
      "Ġassign": 6579,
      "inity": 6580,
      "azz": 6581,
      "uct": 6582,
      "ether": 6583,
      "Ġwinning": 6584,
      "Ġupdate": 6585,
      "Ġhoping": 6586,
      "ĠLin": 6587,
      "ĠSup": 6588,
      "Ġobtain": 6589,
      "uine": 6590,
      "ĠStill": 6591,
      "ĠFlor": 6592,
      "SA": 6593,
      "noon": 6594,
      "iform": 6595,
      "Ġincreasingly": 6596,
      "amily": 6597,
      "ias": 6598,
      "ollow": 6599,
      "Ġbeings": 6600,
      "Ġmemories": 6601,
      "Ġclar": 6602,
      "Since": 6603,
      "Ġchapter": 6604,
      "Ġgenetic": 6605,
      "Thursday": 6606,
      "ĠBlog": 6607,
      "Ġillustr": 6608,
      "Ġyield": 6609,
      "Ġconclusion": 6610,
      "Ġpromote": 6611,
      "Ġguns": 6612,
      "Ġminds": 6613,
      "lete": 6614,
      "ĠHen": 6615,
      "Ġrisks": 6616,
      "Ġclock": 6617,
      "swered": 6618,
      "hyd": 6619,
      "eters": 6620,
      "Ġexplo": 6621,
      "hemat": 6622,
      "ĠParis": 6623,
      "Ġpushed": 6624,
      "Ġbirds": 6625,
      "Ġwidely": 6626,
      "ĠÙ": 6627,
      "!\"": 6628,
      "orough": 6629,
      "ĠMem": 6630,
      "ĠAdam": 6631,
      "ĠHistory": 6632,
      "hips": 6633,
      "abetes": 6634,
      "isco": 6635,
      "lar": 6636,
      "Also": 6637,
      "Ġatmosphere": 6638,
      "Because": 6639,
      "Ġbridge": 6640,
      "Ġpersonality": 6641,
      "ĠThough": 6642,
      "Ġnose": 6643,
      "bered": 6644,
      "lements": 6645,
      "ĠSupp": 6646,
      "ĠSand": 6647,
      "abled": 6648,
      "lled": 6649,
      "Ġwis": 6650,
      "ĠFranc": 6651,
      "Ġvirtual": 6652,
      "Friday": 6653,
      "Ġcompleted": 6654,
      "ĠWilliam": 6655,
      "Am": 6656,
      "Ġintense": 6657,
      "ĠSpr": 6658,
      "ĠWould": 6659,
      "Ġending": 6660,
      "Ġconfident": 6661,
      "kins": 6662,
      "Ġrecall": 6663,
      "xual": 6664,
      "ĠClinton": 6665,
      "ĠMel": 6666,
      "Ġloose": 6667,
      "ĠWater": 6668,
      "ĠSuch": 6669,
      "Ġdefine": 6670,
      "Ġ..": 6671,
      "Ġocean": 6672,
      "Ġcalm": 6673,
      "Ġcutting": 6674,
      "Ġwound": 6675,
      "useum": 6676,
      "Ġrational": 6677,
      "ĠPR": 6678,
      "SP": 6679,
      "Ġdivers": 6680,
      "Ġimproved": 6681,
      "hent": 6682,
      "ĠThomas": 6683,
      "ĠFurther": 6684,
      "Ġaudio": 6685,
      "Ùİ": 6686,
      "anta": 6687,
      "Ġliterature": 6688,
      "Ġridic": 6689,
      "ĠYeah": 6690,
      "Ġreviews": 6691,
      "ĠFire": 6692,
      "Ġannounced": 6693,
      "Ġtor": 6694,
      "Ġarrange": 6695,
      "long": 6696,
      "Ġprocedure": 6697,
      "ĠDist": 6698,
      "def": 6699,
      "Ġlit": 6700,
      "Int": 6701,
      "orted": 6702,
      "Ġemployee": 6703,
      "Ġstrike": 6704,
      "Ġconsumers": 6705,
      "ĠJeff": 6706,
      "Ġflash": 6707,
      "Ġunus": 6708,
      "mary": 6709,
      "Ġregist": 6710,
      "Ġsharp": 6711,
      "Ġprepare": 6712,
      "rip": 6713,
      "erring": 6714,
      "Ġregardless": 6715,
      "duc": 6716,
      "Ġauto": 6717,
      "ogy": 6718,
      "uke": 6719,
      "Ġfacing": 6720,
      "Ġbacteria": 6721,
      "Ġcooking": 6722,
      "herent": 6723,
      "Ġdeeply": 6724,
      "van": 6725,
      "pm": 6726,
      "Ġrepair": 6727,
      "Ġelectricity": 6728,
      "aser": 6729,
      "ĠChild": 6730,
      "Ġeveryday": 6731,
      "Ġhook": 6732,
      "Ġbeer": 6733,
      "olit": 6734,
      "ĠLong": 6735,
      "ĠBid": 6736,
      "Ġdecade": 6737,
      "Ġsector": 6738,
      "Ġchat": 6739,
      "Ġretire": 6740,
      "roduct": 6741,
      "ĠDemocrats": 6742,
      "ĠMexico": 6743,
      "ĠAD": 6744,
      "Ġphilosophy": 6745,
      "Ġtum": 6746,
      "Ġlinked": 6747,
      "ĠâĤ¬": 6748,
      "Ġdating": 6749,
      "Ġlimits": 6750,
      "Ġauthors": 6751,
      "Ġwest": 6752,
      "ĠWil": 6753,
      "ansion": 6754,
      "ruption": 6755,
      "Ġexpressed": 6756,
      "Ġ36": 6757,
      "Ġrecon": 6758,
      "Ġsubsequ": 6759,
      "Ġped": 6760,
      "roat": 6761,
      "Ġwhenever": 6762,
      "Ġhyper": 6763,
      "Ġpleasure": 6764,
      "Ġfalls": 6765,
      "CC": 6766,
      "77": 6767,
      "Ġlogic": 6768,
      "Ġwelcome": 6769,
      "Ġdelay": 6770,
      "ua": 6771,
      "Ġcow": 6772,
      "ĠRepublicans": 6773,
      "ĠBank": 6774,
      "anned": 6775,
      "Ġdepart": 6776,
      "Ġenforce": 6777,
      "ĠCat": 6778,
      "icide": 6779,
      "inks": 6780,
      "Ġsending": 6781,
      "Ġinstitutions": 6782,
      "Ġindustrial": 6783,
      "acc": 6784,
      "ifications": 6785,
      "Ġprogramming": 6786,
      "ĠHuman": 6787,
      "Te": 6788,
      "ographic": 6789,
      "Ġgentle": 6790,
      "pel": 6791,
      "rive": 6792,
      "Ġagency": 6793,
      "gged": 6794,
      "Ġwriters": 6795,
      "ĠIT": 6796,
      "celer": 6797,
      "Ġequally": 6798,
      "Ġbarely": 6799,
      "po": 6800,
      "53": 6801,
      "Ġconsistent": 6802,
      "Ġattitude": 6803,
      "anny": 6804,
      "Ġtoler": 6805,
      "ĠLo": 6806,
      "ĠRead": 6807,
      "Ġsigned": 6808,
      "Ġdrawn": 6809,
      "ÑĢ": 6810,
      "Ġguilty": 6811,
      "Ġax": 6812,
      "Ġequivalent": 6813,
      "88": 6814,
      "Ġcategory": 6815,
      "ĠMer": 6816,
      "Ġfold": 6817,
      "Ġfriendly": 6818,
      "yth": 6819,
      "mp": 6820,
      "Ġtag": 6821,
      "Ġvital": 6822,
      "Ġheaven": 6823,
      "anes": 6824,
      "Ġvulner": 6825,
      "Ġmas": 6826,
      "Ġtroops": 6827,
      "Ġprimarily": 6828,
      "Ġsurrounding": 6829,
      "Ġshoulder": 6830,
      "Ġsubs": 6831,
      "Ġblank": 6832,
      "acks": 6833,
      "Ġnetworks": 6834,
      "ÃŃ": 6835,
      "inem": 6836,
      "Ġplug": 6837,
      "ĠPut": 6838,
      "Ġresource": 6839,
      "Ġschedule": 6840,
      "sect": 6841,
      "angers": 6842,
      "Ġincredibly": 6843,
      "Ġprompt": 6844,
      "gage": 6845,
      "Ġoutcome": 6846,
      "atar": 6847,
      "ideo": 6848,
      "oured": 6849,
      "Ġgear": 6850,
      "ĠAmazon": 6851,
      "greg": 6852,
      "itionally": 6853,
      "Ġenemies": 6854,
      "Ġresc": 6855,
      "ificial": 6856,
      "?âĢĿ": 6857,
      "Ġoxygen": 6858,
      "App": 6859,
      "Ġwhis": 6860,
      "ĠGra": 6861,
      "Ġlady": 6862,
      "ĠCP": 6863,
      "Ġextended": 6864,
      "Ġ32": 6865,
      "Ġmusical": 6866,
      "Ġapproximately": 6867,
      "Ġfulf": 6868,
      "Ġlaid": 6869,
      "ĠKim": 6870,
      "lege": 6871,
      "Ġdeeper": 6872,
      "ĠEU": 6873,
      "Ġflood": 6874,
      "Ġsilver": 6875,
      "--------": 6876,
      "Ġrhy": 6877,
      "ĠFound": 6878,
      "Ġelev": 6879,
      "TH": 6880,
      "Ġlad": 6881,
      "ĠMass": 6882,
      "usal": 6883,
      "tw": 6884,
      "Ġassets": 6885,
      "post": 6886,
      "Ġnerv": 6887,
      "ĠTem": 6888,
      "aine": 6889,
      "Ġappeal": 6890,
      "Ġaccomp": 6891,
      "Ġgenuine": 6892,
      "Ġopposition": 6893,
      "Ġpig": 6894,
      "ĠService": 6895,
      "Ġextract": 6896,
      "Ġdelivery": 6897,
      "Ġliberal": 6898,
      "Ġpoliticians": 6899,
      "ĠHT": 6900,
      "Ġchocolate": 6901,
      "Ġcoord": 6902,
      "Ġduty": 6903,
      "ĠHarry": 6904,
      "ĠBay": 6905,
      "Ġfrequency": 6906,
      "Ġhorm": 6907,
      "lla": 6908,
      "there": 6909,
      "Ġgovernments": 6910,
      "ĠAtl": 6911,
      "Ġblow": 6912,
      "Ġpercentage": 6913,
      "Ġordered": 6914,
      "Ġdomin": 6915,
      "Rec": 6916,
      "rad": 6917,
      "54": 6918,
      "ĠBur": 6919,
      "Ð½": 6920,
      "Ġwaves": 6921,
      "rix": 6922,
      "Ġstatements": 6923,
      "Ġtrend": 6924,
      "Ġimmune": 6925,
      "tenance": 6926,
      "Ġtill": 6927,
      "Ġwithd": 6928,
      "Ġdriven": 6929,
      "pan": 6930,
      "Ġstored": 6931,
      "Ġworried": 6932,
      "Ã¢": 6933,
      "Ġhousehold": 6934,
      "Ġfrustr": 6935,
      "ĠHol": 6936,
      "Ġsupporting": 6937,
      "Ġlifest": 6938,
      "essel": 6939,
      "name": 6940,
      "ĠAsia": 6941,
      "ĠClass": 6942,
      "ĠDar": 6943,
      "ĠNav": 6944,
      "Ġcompare": 6945,
      "ĠAnn": 6946,
      "Ġbottle": 6947,
      "Ġanger": 6948,
      "Ġvariable": 6949,
      "Ġinspired": 6950,
      "Ġtalks": 6951,
      "52": 6952,
      "áī": 6953,
      "Ġdollar": 6954,
      "ĠMinister": 6955,
      "ocratic": 6956,
      "About": 6957,
      "Ġhun": 6958,
      "Ġstrategies": 6959,
      "lessly": 6960,
      "Ġsensitive": 6961,
      "Last": 6962,
      "Ġdoors": 6963,
      "Ġwra": 6964,
      "Ġlandsc": 6965,
      "Ġcomponent": 6966,
      "Ġannual": 6967,
      "ĠSure": 6968,
      "Ġimmediate": 6969,
      "Ġignore": 6970,
      "Ġhardly": 6971,
      "ĠVe": 6972,
      "ĠSecurity": 6973,
      "Ġconsciousness": 6974,
      "Ġconcepts": 6975,
      "ĠAT": 6976,
      "Ġmovements": 6977,
      "Ġemergency": 6978,
      "Ġvehicles": 6979,
      "uan": 6980,
      "Ġremem": 6981,
      "Ġdrawing": 6982,
      "ĠRad": 6983,
      "Ġrig": 6984,
      "Ġagents": 6985,
      "ĠHell": 6986,
      "Ġobst": 6987,
      "ĠShould": 6988,
      "Ġrevenue": 6989,
      "Ġafternoon": 6990,
      "ĠFlorida": 6991,
      "itis": 6992,
      "Ġchamp": 6993,
      "Ġconfused": 6994,
      "ĠColor": 6995,
      "ĠJava": 6996,
      "Ġcandidates": 6997,
      "ĠMax": 6998,
      "zed": 6999,
      "Ġfiction": 7000,
      "Ġstead": 7001,
      "Connecting": 7002,
      "Ġcarrying": 7003,
      "Per": 7004,
      "eting": 7005,
      "ĠOK": 7006,
      "Ġlucky": 7007,
      "Ġexhaust": 7008,
      "ĠAng": 7009,
      "asty": 7010,
      "86": 7011,
      "text": 7012,
      "Ġprotest": 7013,
      "hus": 7014,
      "Ġprosec": 7015,
      "Ġreply": 7016,
      "Ġdiam": 7017,
      "rastructure": 7018,
      ".âĢĿâĢľ": 7019,
      "Other": 7020,
      "inations": 7021,
      "Ġnarrative": 7022,
      "Ġincl": 7023,
      "Ġsubsc": 7024,
      "Ġvotes": 7025,
      "Ġburning": 7026,
      "olars": 7027,
      "Ġtissue": 7028,
      "liament": 7029,
      "Ġsau": 7030,
      "cest": 7031,
      "oom": 7032,
      "Pre": 7033,
      "Ġconference": 7034,
      "Ġplanned": 7035,
      "Ġnine": 7036,
      "ĠLear": 7037,
      "Ġphrase": 7038,
      "active": 7039,
      "Ġtong": 7040,
      "51": 7041,
      "Ġcircle": 7042,
      "BI": 7043,
      "Ġdepos": 7044,
      "Ġrising": 7045,
      "Ġanswered": 7046,
      "Ġretail": 7047,
      "Ġpra": 7048,
      "Ġfilter": 7049,
      "aren": 7050,
      "Ġstrict": 7051,
      "Ġraw": 7052,
      "ĠBest": 7053,
      "Ġaward": 7054,
      "icity": 7055,
      "Ġhack": 7056,
      "Ø±": 7057,
      "luding": 7058,
      "Ġhumanity": 7059,
      "áĭ": 7060,
      "ao": 7061,
      "apse": 7062,
      "Ġfunding": 7063,
      "ferent": 7064,
      "ĠItalian": 7065,
      "Ġapps": 7066,
      "Ġ2001": 7067,
      "Ġcorrectly": 7068,
      "ĠUsing": 7069,
      "Ġdiscipl": 7070,
      "Ġther": 7071,
      "ĠKn": 7072,
      "Ġhotel": 7073,
      "Ġchances": 7074,
      "ĠWas": 7075,
      "Ġheavily": 7076,
      "DF": 7077,
      "Ġshell": 7078,
      "Ġcomplain": 7079,
      "ĠSov": 7080,
      "Ġinfection": 7081,
      "Ġneighborhood": 7082,
      "Ġeast": 7083,
      "oked": 7084,
      "mod": 7085,
      "ĠFinally": 7086,
      "ghan": 7087,
      "Up": 7088,
      "Ġtip": 7089,
      "Ġsuffe": 7090,
      "ĠChristians": 7091,
      "ĠDevelop": 7092,
      "rior": 7093,
      "ras": 7094,
      "ĠLab": 7095,
      "ĠChicago": 7096,
      "even": 7097,
      "ĠList": 7098,
      "ĠProject": 7099,
      "Ġtechnologies": 7100,
      "Ġcrucial": 7101,
      "Ġwise": 7102,
      "Ġorg": 7103,
      "Ġlisted": 7104,
      "Ġlesson": 7105,
      "Ġcommunicate": 7106,
      "words": 7107,
      "Ġvoters": 7108,
      "swer": 7109,
      "Ġmenu": 7110,
      "IF": 7111,
      "Spe": 7112,
      "utation": 7113,
      "Ġinteraction": 7114,
      "issions": 7115,
      "Ġadds": 7116,
      "Ġsuccessfully": 7117,
      "ĠSaturday": 7118,
      "Ġlawyer": 7119,
      "inder": 7120,
      "Ġlips": 7121,
      "Ġparalle": 7122,
      "ĠWord": 7123,
      "ĠNor": 7124,
      "Ġfee": 7125,
      "Back": 7126,
      "ĠTry": 7127,
      "Ġversions": 7128,
      "called": 7129,
      ".âĢĻ": 7130,
      "grade": 7131,
      "Ġclothing": 7132,
      "Ġcig": 7133,
      "Ġdomestic": 7134,
      "ĠJournal": 7135,
      "Ġrice": 7136,
      "Ġconservative": 7137,
      "Ġtested": 7138,
      "isa": 7139,
      "Ġexciting": 7140,
      "ixture": 7141,
      "Ġelected": 7142,
      "Ġbrill": 7143,
      "ĠVict": 7144,
      "Ġdistur": 7145,
      "Ġdivide": 7146,
      "ref": 7147,
      "Ġrelief": 7148,
      "ĠArmy": 7149,
      "Ġdrivers": 7150,
      "Ġbreast": 7151,
      "Ġtonight": 7152,
      "va": 7153,
      "ĠJon": 7154,
      "Ġinstructions": 7155,
      "Ġdedicated": 7156,
      "Ġlying": 7157,
      "Ġurban": 7158,
      "ployment": 7159,
      "ĠBi": 7160,
      "Ġsteel": 7161,
      "Ġnearby": 7162,
      "ĠNext": 7163,
      "Ġcontribute": 7164,
      "rich": 7165,
      "ĠSupreme": 7166,
      "Ġresolution": 7167,
      "gal": 7168,
      "ĠChange": 7169,
      "Ġfourth": 7170,
      "Ġcolour": 7171,
      "ĠComment": 7172,
      "DA": 7173,
      "Ġwestern": 7174,
      "Ġunex": 7175,
      "ĠRiver": 7176,
      "Ġawareness": 7177,
      "afe": 7178,
      "Ġbub": 7179,
      "Ġabst": 7180,
      "Ġsurf": 7181,
      "Ġgenerated": 7182,
      "ota": 7183,
      "Ġestate": 7184,
      "Ġsmoking": 7185,
      "orce": 7186,
      "ushing": 7187,
      "yc": 7188,
      "ja": 7189,
      "Ġinfo": 7190,
      "ivered": 7191,
      "osc": 7192,
      "Ġinvestors": 7193,
      "Today": 7194,
      "htt": 7195,
      "Ġselected": 7196,
      "Ġradical": 7197,
      "ĠJose": 7198,
      "mal": 7199,
      "ĠWithout": 7200,
      "Ġlapt": 7201,
      "Ġnarrow": 7202,
      "Ġblocks": 7203,
      "cific": 7204,
      "yes": 7205,
      "Ġwhereas": 7206,
      "QL": 7207,
      "Ġoh": 7208,
      "oted": 7209,
      "Ġloves": 7210,
      "ogether": 7211,
      "Fe": 7212,
      "Ġregions": 7213,
      "Ġ_": 7214,
      "ĠLight": 7215,
      "Ġengineering": 7216,
      "93": 7217,
      "Ġwarning": 7218,
      "Ġviolent": 7219,
      "Ġbeach": 7220,
      "ĠMaster": 7221,
      "Ġpit": 7222,
      "Ġefficiency": 7223,
      "Ġpushing": 7224,
      "John": 7225,
      "etime": 7226,
      "Ġcomprehens": 7227,
      "Ġlun": 7228,
      "ĠElect": 7229,
      "enny": 7230,
      "Ġhypot": 7231,
      "jection": 7232,
      "ilst": 7233,
      "des": 7234,
      "Ġwanting": 7235,
      "Ġelectronic": 7236,
      "Like": 7237,
      "Ġinev": 7238,
      "agram": 7239,
      "Ġoccas": 7240,
      "Ġdraft": 7241,
      "ĠCarol": 7242,
      "Ġachieved": 7243,
      "Ġtrained": 7244,
      "Ġbother": 7245,
      "Ġyog": 7246,
      "Ġspir": 7247,
      "enth": 7248,
      "Ġexplos": 7249,
      "ĠDen": 7250,
      "Ġletting": 7251,
      "eness": 7252,
      "Sunday": 7253,
      "ĠEss": 7254,
      "Ġadvertising": 7255,
      "Ġ2002": 7256,
      "98": 7257,
      "Ġham": 7258,
      "ĠMartin": 7259,
      "Ġvirus": 7260,
      "Ġpregnancy": 7261,
      "ĠSecret": 7262,
      "ĠCatholic": 7263,
      "Ġsleeping": 7264,
      "ked": 7265,
      "ĠRE": 7266,
      "Ġflour": 7267,
      "Ġhonor": 7268,
      "Ġbutt": 7269,
      "ĠCouncil": 7270,
      "udes": 7271,
      "Ġindicate": 7272,
      "Ġtransition": 7273,
      "ĠReal": 7274,
      "Ġrecipe": 7275,
      "Wr": 7276,
      "pay": 7277,
      "ĠPage": 7278,
      "izer": 7279,
      "Ġnic": 7280,
      "ĠFil": 7281,
      "LA": 7282,
      "ĠPak": 7283,
      "GB": 7284,
      "Ġscenario": 7285,
      "Ġlaun": 7286,
      "âĤ¬": 7287,
      "Ġpul": 7288,
      "igen": 7289,
      "Ġrecognized": 7290,
      "Ġdict": 7291,
      "ĠItaly": 7292,
      "Ġrecru": 7293,
      "Ġenhance": 7294,
      "Ġregime": 7295,
      "Ġexpectations": 7296,
      "Ġstrongly": 7297,
      "Ġrapidly": 7298,
      "Ġpounds": 7299,
      "Ġlets": 7300,
      "Ġcapture": 7301,
      "áĬ": 7302,
      "Ġordinary": 7303,
      "Ġmurd": 7304,
      "iac": 7305,
      "izz": 7306,
      "Ġdestruction": 7307,
      "dis": 7308,
      "lie": 7309,
      "fit": 7310,
      "ÙĦ": 7311,
      "ĠCast": 7312,
      "Sub": 7313,
      "Ġfurn": 7314,
      "Ġcompens": 7315,
      "Ġ300": 7316,
      "Ġbirthday": 7317,
      "parent": 7318,
      "ĊĊĠĠĠĠĠ": 7319,
      "Ġcoal": 7320,
      "Ġsenior": 7321,
      "Anonymous": 7322,
      "Ġratio": 7323,
      "teen": 7324,
      "ä¸": 7325,
      "Ġsty": 7326,
      "ĠCanadian": 7327,
      "umes": 7328,
      "Ġloans": 7329,
      "uilding": 7330,
      "Ġjack": 7331,
      "Ġvessel": 7332,
      "plate": 7333,
      "Ġwebsites": 7334,
      "ĠDiv": 7335,
      "ĠDown": 7336,
      "Ġvictory": 7337,
      "Ġwrites": 7338,
      "Ġpron": 7339,
      "ĠCheck": 7340,
      "PA": 7341,
      "Ġmetab": 7342,
      "Ġgreatly": 7343,
      "utch": 7344,
      "76": 7345,
      "ĠMount": 7346,
      "eline": 7347,
      "ĠThink": 7348,
      "Ġvacc": 7349,
      "According": 7350,
      "Ġtears": 7351,
      "Ġpayments": 7352,
      "Ġreducing": 7353,
      "ĠGame": 7354,
      "...\"": 7355,
      "orses": 7356,
      "agraph": 7357,
      "Ġthorough": 7358,
      "ĠMS": 7359,
      "Ġdomain": 7360,
      "Ġgang": 7361,
      "Ġinstalled": 7362,
      "Related": 7363,
      "Ġcha": 7364,
      "ĠSoci": 7365,
      "BA": 7366,
      "Ġpersons": 7367,
      "ĠPot": 7368,
      "Ġzone": 7369,
      "icy": 7370,
      "asure": 7371,
      "Ġinterface": 7372,
      "viously": 7373,
      "ĠBeing": 7374,
      "ĠSyria": 7375,
      "Ġdifficulty": 7376,
      "Ġstable": 7377,
      "Ġhousing": 7378,
      "Ġproducing": 7379,
      "ĠGal": 7380,
      "Ġcommenting": 7381,
      "ĠSenate": 7382,
      "Ã³": 7383,
      "Ġsurvey": 7384,
      "Ġnervous": 7385,
      "person": 7386,
      "ĠFederal": 7387,
      "ften": 7388,
      "Ġ`": 7389,
      "agan": 7390,
      "Ġsubjects": 7391,
      "Ġ?": 7392,
      "Ġreceiving": 7393,
      "ĠMont": 7394,
      "Ġads": 7395,
      "Ġrose": 7396,
      "Ġproven": 7397,
      "agues": 7398,
      "People": 7399,
      "ĠForm": 7400,
      "Ġhits": 7401,
      "Ġbasket": 7402,
      "Ġdivided": 7403,
      "Col": 7404,
      "RL": 7405,
      "eties": 7406,
      "imp": 7407,
      "icking": 7408,
      "Ġrecovery": 7409,
      "Ġcontrovers": 7410,
      "Mar": 7411,
      "Ġtab": 7412,
      "Over": 7413,
      "Ġauthorities": 7414,
      "Ġsurvival": 7415,
      "Ġmechanism": 7416,
      "ĠLatin": 7417,
      "irmed": 7418,
      "aping": 7419,
      "ĠInf": 7420,
      "Ġdying": 7421,
      "ĠZe": 7422,
      "Ġtrigger": 7423,
      "Ġrail": 7424,
      "law": 7425,
      "osa": 7426,
      "Ġformal": 7427,
      "Ġcharacteristics": 7428,
      "PR": 7429,
      "ĠĠĠĠĠĠ": 7430,
      "Ġoperate": 7431,
      "Ġcurrency": 7432,
      "oty": 7433,
      "Ġtalent": 7434,
      "Ġelections": 7435,
      "otal": 7436,
      "Ġinfrastructure": 7437,
      "ĠInstitute": 7438,
      "itual": 7439,
      "Ġignor": 7440,
      "iner": 7441,
      "eping": 7442,
      "nda": 7443,
      "ĠWal": 7444,
      "alty": 7445,
      "\">": 7446,
      "ĠStart": 7447,
      "fol": 7448,
      "atoes": 7449,
      "âĢĻ,": 7450,
      "ĠExper": 7451,
      "Ġcuts": 7452,
      "umin": 7453,
      "Ġtracks": 7454,
      "Ġshares": 7455,
      "ĠProgram": 7456,
      "Ġpainting": 7457,
      "ystem": 7458,
      "Ġaggress": 7459,
      "Ġnutr": 7460,
      "Ġindu": 7461,
      "ĠBudd": 7462,
      "Ġtech": 7463,
      "ĠPhys": 7464,
      "ĠDark": 7465,
      "ĠHaw": 7466,
      "Ġsaving": 7467,
      "Ġrely": 7468,
      "awn": 7469,
      "Ġrow": 7470,
      "aus": 7471,
      "Although": 7472,
      "Ġfluid": 7473,
      "Ġfur": 7474,
      "Ġbreakfast": 7475,
      "world": 7476,
      "Ġorganic": 7477,
      "lands": 7478,
      "94": 7479,
      "Look": 7480,
      "ĠHard": 7481,
      "ĠiPhone": 7482,
      "ĠGar": 7483,
      "ĠWood": 7484,
      "Ġhappiness": 7485,
      "ba": 7486,
      "Ġdevelopers": 7487,
      "Ġfees": 7488,
      "Ġupset": 7489,
      "ĠWin": 7490,
      "ĠPerson": 7491,
      "ustration": 7492,
      "Ġbreathing": 7493,
      "Ġmand": 7494,
      "ĠWay": 7495,
      "jo": 7496,
      "Ġsorts": 7497,
      "PC": 7498,
      "ĠNaz": 7499,
      "Ġmistakes": 7500,
      "Ġsuperior": 7501,
      "ĠSteve": 7502,
      "Ġhorror": 7503,
      "Che": 7504,
      "Ġhealing": 7505,
      "Ġpregnant": 7506,
      "Ġcoc": 7507,
      "usions": 7508,
      "Ġlifestyle": 7509,
      "ĠDespite": 7510,
      "Ġears": 7511,
      "ĠThrough": 7512,
      "ourse": 7513,
      "elly": 7514,
      "Ġaircraft": 7515,
      "ĠMur": 7516,
      "Ġalarm": 7517,
      "Ġorganized": 7518,
      "Ġapartment": 7519,
      "ĠMrs": 7520,
      "Ġcable": 7521,
      "ĠIll": 7522,
      "Ġassault": 7523,
      "Ġcalories": 7524,
      "prise": 7525,
      "Ġopinions": 7526,
      "obby": 7527,
      "istent": 7528,
      "Ġnotion": 7529,
      "Ġcontrols": 7530,
      "ollywood": 7531,
      "Ġcogn": 7532,
      "iture": 7533,
      "Ġjail": 7534,
      "Ġimmigr": 7535,
      "Ġserving": 7536,
      "Ġbreaks": 7537,
      "ĠRemember": 7538,
      "Ġpm": 7539,
      "Ġdistingu": 7540,
      "ials": 7541,
      "Ġsod": 7542,
      "ĠProt": 7543,
      "Ġrefers": 7544,
      "Ġtopics": 7545,
      "ĠFood": 7546,
      "boy": 7547,
      "Ġadventure": 7548,
      "agement": 7549,
      "Ġspark": 7550,
      "ĠEs": 7551,
      "ptions": 7552,
      "Ġregul": 7553,
      "Ġgre": 7554,
      "Ġpapers": 7555,
      "Ġreplied": 7556,
      "suit": 7557,
      "Ġarrested": 7558,
      "ĠTuesday": 7559,
      "Ġ1990": 7560,
      "Ġcats": 7561,
      "VD": 7562,
      "Ġmaintenance": 7563,
      "Ġfaced": 7564,
      "Ġphones": 7565,
      "ĠBoy": 7566,
      "Ġarray": 7567,
      "Ġfewer": 7568,
      "ikip": 7569,
      "Ġincredible": 7570,
      "mo": 7571,
      "Ġdifferently": 7572,
      "Ġdemands": 7573,
      "Ġcake": 7574,
      "Ġalter": 7575,
      "Ġrum": 7576,
      "Ġreduction": 7577,
      "Ġinstruct": 7578,
      "Ġpuzz": 7579,
      "96": 7580,
      "astern": 7581,
      "ĠConf": 7582,
      "theless": 7583,
      "Ġcurious": 7584,
      "mond": 7585,
      "97": 7586,
      "Ġloyal": 7587,
      "Ġphysically": 7588,
      "uz": 7589,
      "à´": 7590,
      "Ġsurely": 7591,
      "Ġpipe": 7592,
      "Ġshr": 7593,
      "Ġacademic": 7594,
      "ĠNote": 7595,
      "ĠChris": 7596,
      "Mr": 7597,
      "Ġwedding": 7598,
      "Ġmemor": 7599,
      "obile": 7600,
      "Ġdamn": 7601,
      "Ġdescribes": 7602,
      "Ġthrown": 7603,
      "ĠWomen": 7604,
      "Ġsubm": 7605,
      "Ġformula": 7606,
      "ĠEmpire": 7607,
      "Ġassistance": 7608,
      "Ġrecording": 7609,
      "Ġjoke": 7610,
      "Ġinstant": 7611,
      "Ġauthent": 7612,
      "Ġsettings": 7613,
      "Ġrefused": 7614,
      "Ġlocations": 7615,
      "ĠDan": 7616,
      "Ġultimate": 7617,
      "Ġdynamic": 7618,
      "Ġcleaning": 7619,
      "ĠRichard": 7620,
      "hh": 7621,
      "Ġpurs": 7622,
      "Ġrepeat": 7623,
      "ĠAcc": 7624,
      "olt": 7625,
      "ĠHas": 7626,
      "ĠEveryone": 7627,
      "erving": 7628,
      "Ġconnections": 7629,
      "His": 7630,
      "ĠCy": 7631,
      "Ġbowl": 7632,
      "ĠDisc": 7633,
      "ĠCO": 7634,
      "Ð¾Ð": 7635,
      "Ġathlet": 7636,
      "ĠCN": 7637,
      "Ġfucking": 7638,
      "Rep": 7639,
      "Ġcovers": 7640,
      "Thank": 7641,
      "Ġancest": 7642,
      "Ġcreatures": 7643,
      "Thanks": 7644,
      "Ġencounter": 7645,
      "ĠLee": 7646,
      "Ġcomprom": 7647,
      "Good": 7648,
      "Ġunusual": 7649,
      "Ġuncom": 7650,
      "Ġwisdom": 7651,
      "ĠMP": 7652,
      "Ġunp": 7653,
      "ĠMic": 7654,
      "ĠLand": 7655,
      "ĠDesign": 7656,
      "ikipedia": 7657,
      "ĠDemocratic": 7658,
      "Ġroles": 7659,
      "ĠData": 7660,
      "icked": 7661,
      "Ġinformed": 7662,
      "Ġdies": 7663,
      "Ġadvis": 7664,
      "Ġfraud": 7665,
      "Ġacceler": 7666,
      "ĠPan": 7667,
      "ĠMike": 7668,
      "ĠGroup": 7669,
      "Ġchallenging": 7670,
      "Ġgate": 7671,
      "ĠVer": 7672,
      "Ġyours": 7673,
      "Ġhoriz": 7674,
      "ĠSqu": 7675,
      "Ġanybody": 7676,
      "Ġfoundation": 7677,
      "à¥": 7678,
      "Ġcontaining": 7679,
      "Jo": 7680,
      "Ġna": 7681,
      "Ġemployment": 7682,
      "ashes": 7683,
      "ĠHaving": 7684,
      "Ġunion": 7685,
      "Ġpitch": 7686,
      "Ġstruck": 7687,
      "0000": 7688,
      "Ġsched": 7689,
      "Ġprotected": 7690,
      "ĠStand": 7691,
      "Dr": 7692,
      "verty": 7693,
      "Ġcoach": 7694,
      "Ġobjective": 7695,
      "Ġdiabetes": 7696,
      "ali": 7697,
      "ython": 7698,
      "VER": 7699,
      "Ġabilities": 7700,
      "Ġintellectual": 7701,
      "Ġpanel": 7702,
      "Ġfed": 7703,
      "ested": 7704,
      "Ġinitially": 7705,
      "ifting": 7706,
      "ĠNov": 7707,
      "ĠCollege": 7708,
      "Ġlicense": 7709,
      "Ġprev": 7710,
      "Ġpoverty": 7711,
      "Ġsinging": 7712,
      "otes": 7713,
      "Ġmanifest": 7714,
      "making": 7715,
      "Ġscan": 7716,
      "Step": 7717,
      "Ġiniti": 7718,
      "essions": 7719,
      "Ġowned": 7720,
      "atively": 7721,
      "Ġlessons": 7722,
      "Ġrepresented": 7723,
      "idelines": 7724,
      "Rem": 7725,
      "Ġgam": 7726,
      "Ġvegetables": 7727,
      "ĠLouis": 7728,
      "Ġcompetitive": 7729,
      "Ġenorm": 7730,
      "Ġangle": 7731,
      "Ġlean": 7732,
      "Ġfest": 7733,
      "Ġdesired": 7734,
      "ĠDev": 7735,
      "Ġgal": 7736,
      "Ġdisorder": 7737,
      "Ġchildhood": 7738,
      "Ġpermanent": 7739,
      "American": 7740,
      "Ġpoem": 7741,
      "Ġ1980": 7742,
      "rick": 7743,
      "Ġbiological": 7744,
      "lers": 7745,
      "Ġnurs": 7746,
      "Ġfert": 7747,
      "ĠPublic": 7748,
      "date": 7749,
      "ĠAfghan": 7750,
      "some": 7751,
      "Ġcenturies": 7752,
      "Ġadministr": 7753,
      "Ġshots": 7754,
      "Ġcryst": 7755,
      "redit": 7756,
      "othe": 7757,
      "pending": 7758,
      "Ã¶": 7759,
      "Ġformation": 7760,
      "Ġalien": 7761,
      "ĠEp": 7762,
      "aret": 7763,
      "ĠEnd": 7764,
      "Ġroots": 7765,
      ",'": 7766,
      "Ġresponses": 7767,
      "Ġreveal": 7768,
      "IR": 7769,
      "mat": 7770,
      "ultural": 7771,
      "ĠKar": 7772,
      "Ġbehaviour": 7773,
      "Ġinvolving": 7774,
      "Ġobtained": 7775,
      "Ġscholars": 7776,
      "Ġtape": 7777,
      "Ġye": 7778,
      "comes": 7779,
      "Ne": 7780,
      "Ġproteins": 7781,
      "ĠCompany": 7782,
      "Ġseed": 7783,
      "ĠPay": 7784,
      "Ġcrimes": 7785,
      "Ġsupports": 7786,
      "Ġantib": 7787,
      "Ġuniform": 7788,
      "atell": 7789,
      "Ġgap": 7790,
      "Ġconfront": 7791,
      "Ã¼": 7792,
      "Ġpoison": 7793,
      "Ġtongue": 7794,
      "Ġagric": 7795,
      "ĠCall": 7796,
      "Ġgig": 7797,
      "Ġought": 7798,
      "Ġscrew": 7799,
      "Ġrelation": 7800,
      "roduction": 7801,
      "Ġbills": 7802,
      "Ġdesert": 7803,
      "Ġmixture": 7804,
      "Ġgained": 7805,
      "ĠCop": 7806,
      "Ġmg": 7807,
      "Ġscar": 7808,
      "ĠEth": 7809,
      "ĠVis": 7810,
      "Ġpassword": 7811,
      "Avg": 7812,
      "Ġrecover": 7813,
      "Ġhealthcare": 7814,
      "ĠSoviet": 7815,
      "Ġdear": 7816,
      "Image": 7817,
      "Ġestimated": 7818,
      "Ġsignals": 7819,
      "ĠNight": 7820,
      "agra": 7821,
      "ĠGM": 7822,
      "Ġusage": 7823,
      "husi": 7824,
      "Ġrenew": 7825,
      "Sim": 7826,
      "ĠOS": 7827,
      "Ġaccompan": 7828,
      "Ġicon": 7829,
      "Ġdelivered": 7830,
      "after": 7831,
      "Ġanticip": 7832,
      "Ġbits": 7833,
      "umer": 7834,
      "Ġsheet": 7835,
      "Ġparagraph": 7836,
      "Ġsed": 7837,
      "ĠExpl": 7838,
      "Ġprime": 7839,
      "ĠÂłĊ": 7840,
      "Ġdirected": 7841,
      "ologists": 7842,
      "ĠConstitution": 7843,
      "Ġspaces": 7844,
      "Ġmeasured": 7845,
      "Ġmedication": 7846,
      "ĠRon": 7847,
      "Ġbatt": 7848,
      "rav": 7849,
      "ĠTurn": 7850,
      "ĠRome": 7851,
      "anwhile": 7852,
      "Ġpocket": 7853,
      "Book": 7854,
      "sl": 7855,
      "zer": 7856,
      "Ġlegislation": 7857,
      "Ġshame": 7858,
      "ENT": 7859,
      "Ġunlikely": 7860,
      "ĠMot": 7861,
      "Ġengaged": 7862,
      "Ġtension": 7863,
      "omed": 7864,
      "only": 7865,
      "Ġghost": 7866,
      "ĠAssociation": 7867,
      "ca": 7868,
      "ifice": 7869,
      "Ġenable": 7870,
      "ĠLar": 7871,
      "Ġprivile": 7872,
      "ĠNob": 7873,
      "::": 7874,
      "aste": 7875,
      "elling": 7876,
      "Ġvolunte": 7877,
      "Ġships": 7878,
      "Ġmathemat": 7879,
      "Ġok": 7880,
      "Ġbranch": 7881,
      ".-": 7882,
      "ĠSpace": 7883,
      "Ġsilence": 7884,
      "Ġsubstance": 7885,
      "DP": 7886,
      "Ġmarked": 7887,
      "Ġfunctional": 7888,
      "Ġexceed": 7889,
      "Ġchecking": 7890,
      "Ġutter": 7891,
      "uma": 7892,
      "urse": 7893,
      "Ġsuffered": 7894,
      "imize": 7895,
      "Ġstudio": 7896,
      "agger": 7897,
      "ĠSpirit": 7898,
      "ĠPalest": 7899,
      "ĠVirgin": 7900,
      "Ġpace": 7901,
      "Ġmirror": 7902,
      "Ġerrors": 7903,
      "assion": 7904,
      "Ġstayed": 7905,
      "stone": 7906,
      "aka": 7907,
      "Ġdiscovery": 7908,
      "Ġlip": 7909,
      "ĠBusiness": 7910,
      "Ob": 7911,
      "Ġven": 7912,
      "Ġconvinced": 7913,
      "Ġfib": 7914,
      "Ġmic": 7915,
      "cho": 7916,
      "ifferent": 7917,
      "Ġproved": 7918,
      "plete": 7919,
      "arrass": 7920,
      "Ġsearching": 7921,
      "PM": 7922,
      "Ġstir": 7923,
      "ending": 7924,
      "ĠIslamic": 7925,
      "Ġuncle": 7926,
      "Ġaccomplish": 7927,
      "Ġterritory": 7928,
      "Ġentit": 7929,
      "Ġpassage": 7930,
      "crib": 7931,
      "eries": 7932,
      "ĠPac": 7933,
      "UN": 7934,
      "Ġovercome": 7935,
      "Ġdiscount": 7936,
      "ĠSea": 7937,
      "Part": 7938,
      "ample": 7939,
      "Ġchecked": 7940,
      "Ġsavings": 7941,
      "enger": 7942,
      "aneously": 7943,
      "ĠHim": 7944,
      "Ġconstit": 7945,
      "64": 7946,
      "Ġtooth": 7947,
      "Ġhanging": 7948,
      "pers": 7949,
      "Ġperiods": 7950,
      "Ġmyster": 7951,
      "Ġreaching": 7952,
      "Ġalleged": 7953,
      "olicy": 7954,
      "Ġrefuge": 7955,
      "rection": 7956,
      "oric": 7957,
      "Ġdrunk": 7958,
      "ds": 7959,
      "ĠSir": 7960,
      "Ġagencies": 7961,
      "ami": 7962,
      "zil": 7963,
      "rypt": 7964,
      "Ġfake": 7965,
      "seless": 7966,
      "Ġnutri": 7967,
      "ĠHenry": 7968,
      "Ġ~": 7969,
      "ĠJones": 7970,
      "Ġmere": 7971,
      "Ġexecutive": 7972,
      "Have": 7973,
      "Ġæ": 7974,
      "Ġmeals": 7975,
      "Ġpharm": 7976,
      "ĠRay": 7977,
      "Ġbones": 7978,
      "ester": 7979,
      "Ġelsewhere": 7980,
      "Ġholiday": 7981,
      "Saturday": 7982,
      "ĠCharles": 7983,
      "Ġseeds": 7984,
      "Ġactor": 7985,
      "Ġenthusi": 7986,
      "ĠCamp": 7987,
      "Ġroughly": 7988,
      "onder": 7989,
      "Ġreliable": 7990,
      "Ġdrives": 7991,
      "eras": 7992,
      "weight": 7993,
      "Ġunderlying": 7994,
      "Ġbuff": 7995,
      "ĠAdm": 7996,
      "Ġconducted": 7997,
      "ĠThursday": 7998,
      "iano": 7999,
      "Ġelectrical": 8000,
      "Ġbrothers": 8001,
      "ethe": 8002,
      "quest": 8003,
      "Tube": 8004,
      "ĠDonald": 8005,
      "Ġjudgment": 8006,
      "Ġaccum": 8007,
      "ĠMedic": 8008,
      "ĠKnow": 8009,
      "ĠOffice": 8010,
      "erman": 8011,
      "Ġritual": 8012,
      "Ġstab": 8013,
      "inction": 8014,
      "DS": 8015,
      "Ġinjuries": 8016,
      "rets": 8017,
      "ĠNY": 8018,
      "Ġcounsel": 8019,
      "Ġdelight": 8020,
      "Sec": 8021,
      "Ġimpression": 8022,
      "Ġcultures": 8023,
      "ĠĠĠĠĠĠĠĠĠĠĠĠĠĠĠĠĠĠĠĠĠĠĠĠĠĠĠĠĠĠĠĠ": 8024,
      "when": 8025,
      "Ġgranted": 8026,
      "Ġflowers": 8027,
      "je": 8028,
      "Ġversus": 8029,
      "Ġsli": 8030,
      "orous": 8031,
      "function": 8032,
      "ĠFar": 8033,
      "aved": 8034,
      "Ġlovely": 8035,
      "Ġarmed": 8036,
      "ĠSS": 8037,
      "iana": 8038,
      "ĠJustice": 8039,
      "Ġfought": 8040,
      "Ġapproaches": 8041,
      "Ġarchitecture": 8042,
      "ĠHind": 8043,
      "Ġinterpretation": 8044,
      "da": 8045,
      "Ġinfect": 8046,
      "Ġshout": 8047,
      "ĠDam": 8048,
      "ureau": 8049,
      "obs": 8050,
      "Ġuncertain": 8051,
      "Ġfabric": 8052,
      "coin": 8053,
      "ĠFour": 8054,
      "eek": 8055,
      "ĠMess": 8056,
      "ĠDC": 8057,
      "ĠDaniel": 8058,
      "Ġsake": 8059,
      "ĠDeath": 8060,
      "Ġease": 8061,
      "ĠCare": 8062,
      "andy": 8063,
      "ĠProfess": 8064,
      "))": 8065,
      "ĠLittle": 8066,
      "ĠThree": 8067,
      "Ġparticipate": 8068,
      "Ġcommitment": 8069,
      "run": 8070,
      "oret": 8071,
      "ĠEconom": 8072,
      "Ġforgotten": 8073,
      "Ġdismiss": 8074,
      "ĠName": 8075,
      "Ġox": 8076,
      "Ġinsight": 8077,
      "Ġvariables": 8078,
      "gly": 8079,
      "Ġinsert": 8080,
      "Ġheaded": 8081,
      "Ġages": 8082,
      "endment": 8083,
      "page": 8084,
      "Ġdecor": 8085,
      "Ġpsychological": 8086,
      "Ġdeclared": 8087,
      "Ġadopted": 8088,
      "ĠMember": 8089,
      "ieve": 8090,
      "Ġparallel": 8091,
      "FL": 8092,
      "ĠCle": 8093,
      "ĠMuslims": 8094,
      "Ġguarantee": 8095,
      "Ġregister": 8096,
      "Will": 8097,
      "Ġholes": 8098,
      "ifted": 8099,
      "Ġcentre": 8100,
      "yers": 8101,
      "Ġhabits": 8102,
      "ibl": 8103,
      "ĠTal": 8104,
      "ĠWednesday": 8105,
      "esides": 8106,
      "Ġpulling": 8107,
      "acles": 8108,
      "Ġvisited": 8109,
      "Ġimprovement": 8110,
      "ĠSn": 8111,
      "ĠWhether": 8112,
      "angle": 8113,
      "Ġconce": 8114,
      "ĠJun": 8115,
      "Ġmoist": 8116,
      "xx": 8117,
      "Ġbands": 8118,
      "organ": 8119,
      "Ġimplementation": 8120,
      "Ġhorses": 8121,
      "Ġthy": 8122,
      "irector": 8123,
      "Ġphysics": 8124,
      "ĠCivil": 8125,
      "ĠKh": 8126,
      "etary": 8127,
      "Ġstudied": 8128,
      "ĠSpain": 8129,
      "Ġrecognition": 8130,
      "good": 8131,
      "pg": 8132,
      "Ġdeals": 8133,
      "Ġgenerations": 8134,
      "Ġsauce": 8135,
      "ji": 8136,
      "Ġactors": 8137,
      "Ġmit": 8138,
      "Ġprofessor": 8139,
      "Ġtack": 8140,
      "Ġassert": 8141,
      "Ġconsideration": 8142,
      "ĠFed": 8143,
      "VE": 8144,
      "Ġresidents": 8145,
      "Ġpainful": 8146,
      "Ð°Ð": 8147,
      "sis": 8148,
      "Ġaffects": 8149,
      "ÛĮ": 8150,
      "ĠKorean": 8151,
      "Ġfired": 8152,
      "ĠCreat": 8153,
      "ĠExt": 8154,
      "Ġstages": 8155,
      "Ġstops": 8156,
      "Ġparad": 8157,
      "Ġlogical": 8158,
      "Ġconcentration": 8159,
      "Ġbike": 8160,
      "Ġperforming": 8161,
      "Ġinnocent": 8162,
      "Ġpresentation": 8163,
      "Ġgolden": 8164,
      "cut": 8165,
      "Ġdecline": 8166,
      "Ġstudying": 8167,
      "Ġattractive": 8168,
      "Ġdecrease": 8169,
      "Ġattorney": 8170,
      "ĠPlus": 8171,
      "ĠNothing": 8172,
      "Ġcrash": 8173,
      "ensus": 8174,
      "Ġaccused": 8175,
      "Ġweakness": 8176,
      "ĠEduc": 8177,
      "Ġparticipants": 8178,
      "ima": 8179,
      "don": 8180,
      "Ġreverse": 8181,
      "berry": 8182,
      "Ġexplicit": 8183,
      "Share": 8184,
      "Ġchoosing": 8185,
      "ĠPop": 8186,
      "Ġvoc": 8187,
      "Ġstaying": 8188,
      "RS": 8189,
      "orne": 8190,
      "Ġ(\"": 8191,
      "ĠInformation": 8192,
      "Ġchannels": 8193,
      "Ġorient": 8194,
      "agine": 8195,
      "Ġcategories": 8196,
      "Ġbabies": 8197,
      "ĠLead": 8198,
      "ements": 8199,
      "ĠYOU": 8200,
      "ĠForce": 8201,
      "Ġminister": 8202,
      "2013": 8203,
      "Ġbene": 8204,
      "ĠCapt": 8205,
      "Ġswing": 8206,
      "Ġadmitted": 8207,
      "Ġhopes": 8208,
      "uation": 8209,
      "âĢĿâĢľ": 8210,
      "Ġsuitable": 8211,
      "ĠTit": 8212,
      "Ġperpet": 8213,
      "Ġcontained": 8214,
      "Ġwing": 8215,
      "ĠShow": 8216,
      "Ġprofessionals": 8217,
      "may": 8218,
      "Ġwars": 8219,
      "ati": 8220,
      "OO": 8221,
      "Ġfet": 8222,
      "gel": 8223,
      "Ġcriter": 8224,
      "archy": 8225,
      "igan": 8226,
      "ĠEll": 8227,
      "ĠProv": 8228,
      "oop": 8229,
      "Ġdiverse": 8230,
      "ĠViet": 8231,
      "away": 8232,
      "ĠQueen": 8233,
      "Ġshower": 8234,
      "ï»": 8235,
      "ï¿": 8236,
      "ctr": 8237,
      "type": 8238,
      "Ġhence": 8239,
      "Ġsuspic": 8240,
      "Ġintroduction": 8241,
      "Ġthroat": 8242,
      "step": 8243,
      "Ġfantastic": 8244,
      "Ġdisaster": 8245,
      "py": 8246,
      "Ġframework": 8247,
      "Ġhire": 8248,
      "ouch": 8249,
      "Ġinches": 8250,
      "blog": 8251,
      "Ġsword": 8252,
      "ÙĨ": 8253,
      "Ġentr": 8254,
      "alysis": 8255,
      "Ġneur": 8256,
      "Ġboxes": 8257,
      "Ġpropag": 8258,
      "Ġcheaper": 8259,
      "oval": 8260,
      "Ġconsists": 8261,
      "Ġtrem": 8262,
      "Ġportray": 8263,
      ".]": 8264,
      "Ġdarkness": 8265,
      "Ġvoting": 8266,
      "Ġrhyth": 8267,
      "ĠSet": 8268,
      "uled": 8269,
      "ĠRights": 8270,
      "Ġadequ": 8271,
      "bow": 8272,
      "Ġwash": 8273,
      "Ġcham": 8274,
      "Ġrooms": 8275,
      "Ġhoney": 8276,
      "aying": 8277,
      "ĠSign": 8278,
      "ï»¿": 8279,
      "ĠOrgan": 8280,
      "Ġarrive": 8281,
      "ira": 8282,
      "ĠBlue": 8283,
      "Ġmagazine": 8284,
      "ĠAuthor": 8285,
      "Ġscheme": 8286,
      "Ġbars": 8287,
      "Ġinhib": 8288,
      "ĠCir": 8289,
      "Ġtied": 8290,
      "Ġkeys": 8291,
      "Inst": 8292,
      "mg": 8293,
      "ĠWalk": 8294,
      "Ġdialogue": 8295,
      "Ġelectron": 8296,
      "Ġmortgage": 8297,
      "ragon": 8298,
      "ugs": 8299,
      "Ġloving": 8300,
      "lyn": 8301,
      "atching": 8302,
      "Ġren": 8303,
      "gments": 8304,
      "Ġprocedures": 8305,
      "rend": 8306,
      "father": 8307,
      "ommod": 8308,
      "Ġà¤": 8309,
      "ĠRam": 8310,
      "ĠKat": 8311,
      "Ġbot": 8312,
      "Ġoccasionally": 8313,
      "rons": 8314,
      "!)": 8315,
      "ndrome": 8316,
      "Ġnewspaper": 8317,
      "Ġinher": 8318,
      "Ġindicates": 8319,
      "Ġlaptop": 8320,
      "ï¿½": 8321,
      "oston": 8322,
      "Ġcorn": 8323,
      "Ġprepar": 8324,
      "Ġreputation": 8325,
      "Ġamongst": 8326,
      "Ġembarrass": 8327,
      "Ġsupplies": 8328,
      "Ġcounty": 8329,
      "Ġartificial": 8330,
      "Ġdirty": 8331,
      "rooms": 8332,
      "Ġraising": 8333,
      "ounce": 8334,
      "Ġentertainment": 8335,
      "rep": 8336,
      "cia": 8337,
      "Ġroads": 8338,
      "Ġongoing": 8339,
      "Ġserves": 8340,
      "Ġgenre": 8341,
      "Ġdeliber": 8342,
      "Ġquit": 8343,
      "nergy": 8344,
      "ĠSociety": 8345,
      "CD": 8346,
      "Ġsmiled": 8347,
      "ĠHit": 8348,
      "Ġfigured": 8349,
      "ĠCould": 8350,
      "Ġcompe": 8351,
      "itarian": 8352,
      "Ġprospect": 8353,
      "Ġparameters": 8354,
      "ĠOl": 8355,
      "Ġcreature": 8356,
      "Ġunexpected": 8357,
      "68": 8358,
      "Ġassessment": 8359,
      "ĠDig": 8360,
      "âĢ¦.": 8361,
      "Ġfantasy": 8362,
      "CP": 8363,
      "Ġvert": 8364,
      "Ġdisg": 8365,
      "Ġmask": 8366,
      "aunt": 8367,
      "Ġmystery": 8368,
      "Ġshirt": 8369,
      "Ġstruggling": 8370,
      "Ġtheories": 8371,
      "Ġbeneath": 8372,
      "Sm": 8373,
      "Ġles": 8374,
      "Ġlift": 8375,
      "ĠIre": 8376,
      "geon": 8377,
      "imm": 8378,
      "olving": 8379,
      "prene": 8380,
      "arts": 8381,
      "Yeah": 8382,
      "ĠLos": 8383,
      "Ġscared": 8384,
      "Ġuniversal": 8385,
      "Ġbrowser": 8386,
      "TA": 8387,
      "Ġgir": 8388,
      "Ġsimult": 8389,
      "Ġexpansion": 8390,
      "Ġreporting": 8391,
      "Ġ1970": 8392,
      "Ġwithdraw": 8393,
      "Did": 8394,
      "Ġattacked": 8395,
      "Ġticket": 8396,
      "itches": 8397,
      "Ġconcrete": 8398,
      "ĠVictor": 8399,
      "Ġlandscape": 8400,
      "riers": 8401,
      "ĠFind": 8402,
      "Hey": 8403,
      "Ġburst": 8404,
      "athan": 8405,
      "Ġtexts": 8406,
      "eling": 8407,
      "ĠOly": 8408,
      "iah": 8409,
      "Ġloop": 8410,
      "ader": 8411,
      "Ġlayers": 8412,
      "CE": 8413,
      "LY": 8414,
      "ulin": 8415,
      "Ġveter": 8416,
      "Ġfacil": 8417,
      "'.": 8418,
      "ĠAS": 8419,
      "bably": 8420,
      "ownt": 8421,
      "elle": 8422,
      "Ġdipl": 8423,
      "such": 8424,
      "Ġirrit": 8425,
      "west": 8426,
      "ĠCub": 8427,
      "necess": 8428,
      "reprene": 8429,
      "erior": 8430,
      "Ġinflation": 8431,
      "CO": 8432,
      "Car": 8433,
      "Ġborr": 8434,
      "ĠStory": 8435,
      "will": 8436,
      "Ġtub": 8437,
      "Ġcourts": 8438,
      "Ġclinical": 8439,
      "Ġcute": 8440,
      "through": 8441,
      "Ġphotograph": 8442,
      "atus": 8443,
      "ĠSaud": 8444,
      "ĠYoung": 8445,
      "Ġtranslation": 8446,
      "ĠVery": 8447,
      "ptic": 8448,
      "Ġspoken": 8449,
      "Ġethnic": 8450,
      "Ġstretch": 8451,
      "Ġretirement": 8452,
      "Ġbrilliant": 8453,
      "Ġlists": 8454,
      "EE": 8455,
      "Ġ1999": 8456,
      "Ġflavor": 8457,
      "http": 8458,
      "Ġliver": 8459,
      "Ġupdated": 8460,
      "Ġcaptured": 8461,
      "Ġexpenses": 8462,
      "Ġsilent": 8463,
      "Before": 8464,
      "being": 8465,
      "Ġ38": 8466,
      "Ġtrave": 8467,
      "Ġpink": 8468,
      "Ġmild": 8469,
      "Ġchronic": 8470,
      "ĠCH": 8471,
      "Ġlocked": 8472,
      "ifer": 8473,
      "Ġregulations": 8474,
      "Ġtends": 8475,
      "Note": 8476,
      "Ġdivision": 8477,
      "Ġ//": 8478,
      "Ġimproving": 8479,
      "Ġprivacy": 8480,
      "Ġmini": 8481,
      "Ġfallen": 8482,
      "________________": 8483,
      "ĠAustralian": 8484,
      "Ġenormous": 8485,
      "jud": 8486,
      "ila": 8487,
      "Ġgut": 8488,
      "Ġmonthly": 8489,
      "ĠJohnson": 8490,
      "Next": 8491,
      "ĠÂłÂł": 8492,
      "osexual": 8493,
      "Ġthrowing": 8494,
      "log": 8495,
      "arters": 8496,
      "tery": 8497,
      "Ġmanual": 8498,
      "Ġexperiments": 8499,
      "cal": 8500,
      "Ġradiation": 8501,
      "67": 8502,
      "Ġpromised": 8503,
      "Press": 8504,
      "ĠEnter": 8505,
      "Ġhip": 8506,
      "Ġissued": 8507,
      "Ġsouthern": 8508,
      "ĠFather": 8509,
      "vy": 8510,
      "pled": 8511,
      "Ġeducational": 8512,
      "Ġinteractions": 8513,
      "Ġproduces": 8514,
      "ĠAsian": 8515,
      "ĠConsider": 8516,
      "uction": 8517,
      "Ġ75": 8518,
      "erning": 8519,
      "During": 8520,
      "ĠAh": 8521,
      "ĠLink": 8522,
      "Ġapproved": 8523,
      "ĠThings": 8524,
      "cture": 8525,
      "Ġignored": 8526,
      "Ġsought": 8527,
      "ĠHollywood": 8528,
      "Ġconfirmed": 8529,
      "Ġprotocol": 8530,
      "Ġinjured": 8531,
      "Ġpermission": 8532,
      "Ġintelligent": 8533,
      "ckets": 8534,
      "ĠMusic": 8535,
      "natural": 8536,
      "ĠYouTube": 8537,
      "ĠAri": 8538,
      "Ġhorrible": 8539,
      "file": 8540,
      "ĠKen": 8541,
      "requ": 8542,
      "roph": 8543,
      "omatic": 8544,
      "Ġpasses": 8545,
      "pie": 8546,
      "Ġpour": 8547,
      "his": 8548,
      "Ġridiculous": 8549,
      "RI": 8550,
      "Ke": 8551,
      "rying": 8552,
      "Ġspeaker": 8553,
      "][": 8554,
      "Ġsne": 8555,
      "Ġphenomenon": 8556,
      "ÂłÂłÂłÂłÂł": 8557,
      "Ġdefeat": 8558,
      "MA": 8559,
      "Ġmountains": 8560,
      "Art": 8561,
      "Ġreplacement": 8562,
      "omer": 8563,
      "áŀ": 8564,
      "Ġ}": 8565,
      "Ġsuicide": 8566,
      "65": 8567,
      "Ġ33": 8568,
      "Ġextensive": 8569,
      "ĠCEO": 8570,
      "Ġexcuse": 8571,
      "amps": 8572,
      "Ġperception": 8573,
      "Ġruling": 8574,
      "Ġalgorithm": 8575,
      "Â·": 8576,
      "ĠBat": 8577,
      "Ġcommission": 8578,
      "ĠRoad": 8579,
      "Ġsettled": 8580,
      "uten": 8581,
      "Ġabsence": 8582,
      "Ġcollected": 8583,
      "Ġfate": 8584,
      "Ġspons": 8585,
      "Äģ": 8586,
      "rec": 8587,
      "Ġdrama": 8588,
      "Ġdeaths": 8589,
      "wan": 8590,
      "oded": 8591,
      "ocks": 8592,
      "ĠRef": 8593,
      "Ġtrail": 8594,
      "anguage": 8595,
      "Two": 8596,
      "ĠBu": 8597,
      "Ġconfusion": 8598,
      "Ġmouse": 8599,
      "opher": 8600,
      "Ġhill": 8601,
      "Ġaccessible": 8602,
      "Ġconvenient": 8603,
      "Ġprohib": 8604,
      "ĠPub": 8605,
      "itty": 8606,
      "Ġlaunched": 8607,
      "Ġtheat": 8608,
      "iox": 8609,
      "bet": 8610,
      "ĠBad": 8611,
      "ĠBell": 8612,
      "Ġdates": 8613,
      "sell": 8614,
      "lfriend": 8615,
      "Gu": 8616,
      "Ġbags": 8617,
      "ĠHoly": 8618,
      "Ġbeneficial": 8619,
      "Ġlux": 8620,
      "ucky": 8621,
      "owered": 8622,
      "prove": 8623,
      "occ": 8624,
      "Ġimportantly": 8625,
      "Ġbathroom": 8626,
      "Ġrefe": 8627,
      "Ge": 8628,
      "Ġstability": 8629,
      "Ġhes": 8630,
      "Ġ''": 8631,
      "%,": 8632,
      "fire": 8633,
      "Fl": 8634,
      "ĠPrime": 8635,
      "Ġlifetime": 8636,
      "Ġmile": 8637,
      "ĠHot": 8638,
      "have": 8639,
      "Ġkil": 8640,
      "Ġtransaction": 8641,
      "ĠPrin": 8642,
      "fortable": 8643,
      "ĠMedia": 8644,
      "Ġgods": 8645,
      "Ġassumed": 8646,
      "aire": 8647,
      "Ġequation": 8648,
      "Ġannounce": 8649,
      "Ġregional": 8650,
      "ĠScot": 8651,
      "ĠSP": 8652,
      "ĠHop": 8653,
      "sub": 8654,
      "Ġdont": 8655,
      "Ġrating": 8656,
      "Ġalert": 8657,
      "Ġaccommod": 8658,
      "ĠPakistan": 8659,
      "Ġgrace": 8660,
      "Ġcourage": 8661,
      "Ġroy": 8662,
      "MP": 8663,
      "Ġseemingly": 8664,
      "ĠEngine": 8665,
      "Take": 8666,
      "izza": 8667,
      "Ġincent": 8668,
      "Ġattach": 8669,
      "conf": 8670,
      "ĠUlt": 8671,
      "puter": 8672,
      "Ġwage": 8673,
      "ĠInvest": 8674,
      "Ġargued": 8675,
      "Ġseats": 8676,
      "about": 8677,
      "ĠCommission": 8678,
      "Source": 8679,
      "ĠProp": 8680,
      "Figure": 8681,
      "worth": 8682,
      "Ġstack": 8683,
      "Ġtempt": 8684,
      "ĠWars": 8685,
      "ĠLeague": 8686,
      "ĠCup": 8687,
      "ĠOF": 8688,
      "Which": 8689,
      "Ġvisitors": 8690,
      "because": 8691,
      "Ġmold": 8692,
      "Ġheal": 8693,
      "ĠON": 8694,
      "Ġdependent": 8695,
      "Ġtargets": 8696,
      "Ġtube": 8697,
      "Ġassigned": 8698,
      "Ġcorrel": 8699,
      "Ġsecondary": 8700,
      "Ġfacilities": 8701,
      "Ġbrut": 8702,
      "pha": 8703,
      "Ġstatistics": 8704,
      "Ġ01": 8705,
      "Ġconvert": 8706,
      "ĠUk": 8707,
      "Ġhearts": 8708,
      "ĠEverything": 8709,
      "mind": 8710,
      "made": 8711,
      "uns": 8712,
      "ĠPsych": 8713,
      "Ġentering": 8714,
      "Ġinqu": 8715,
      "acon": 8716,
      "Ġopens": 8717,
      "Ġexercises": 8718,
      "olves": 8719,
      "Ġchecks": 8720,
      "Ġeliminate": 8721,
      "Ġä": 8722,
      "Ġattempted": 8723,
      "Ġshadow": 8724,
      "Ġtemporary": 8725,
      "Ġcosm": 8726,
      "Ġimpressive": 8727,
      "Ġheading": 8728,
      "iy": 8729,
      "Ġdil": 8730,
      "cip": 8731,
      "Ġacceptable": 8732,
      "Ġcircuit": 8733,
      "Ġhonestly": 8734,
      "ĠCra": 8735,
      "Ġstocks": 8736,
      "ĠCa": 8737,
      "yrics": 8738,
      "Ġchemicals": 8739,
      "Ġrecept": 8740,
      "Ġfarmers": 8741,
      "Comm": 8742,
      "Ġparticles": 8743,
      "Ġprofits": 8744,
      "Ġassociation": 8745,
      "Ġpremium": 8746,
      "ĠNon": 8747,
      "Ġthreats": 8748,
      "Ġenforcement": 8749,
      "ĠIndeed": 8750,
      "Ġmaintaining": 8751,
      "ĠBit": 8752,
      "ĠPen": 8753,
      "abeth": 8754,
      "Ġmarks": 8755,
      "Ġdamaged": 8756,
      "Ġtemperatures": 8757,
      "ĠPolit": 8758,
      "uate": 8759,
      "Ġcameras": 8760,
      "iams": 8761,
      "ĠAPI": 8762,
      "Ġdispl": 8763,
      "aneous": 8764,
      "Ġvirtually": 8765,
      "ĠPers": 8766,
      "Ġgrant": 8767,
      "has": 8768,
      "ĠAR": 8769,
      "Ġprecisely": 8770,
      "Ġpowder": 8771,
      "Ġboring": 8772,
      "Cons": 8773,
      "ĊĠĠĠĠĠ": 8774,
      "Ġorange": 8775,
      "ĠFact": 8776,
      "Ġdeserve": 8777,
      "Ġdemocratic": 8778,
      "Ġinstruments": 8779,
      "Ġnorthern": 8780,
      "2018": 8781,
      "Ġsamples": 8782,
      "Ġintr": 8783,
      "Ġ48": 8784,
      "ĠWild": 8785,
      "Ġsubtle": 8786,
      "athered": 8787,
      "ĠCross": 8788,
      "Ġpreced": 8789,
      "gain": 8790,
      "Ġdeck": 8791,
      "Ġspeaks": 8792,
      "Ġdump": 8793,
      "Ġworship": 8794,
      "Ġdrinks": 8795,
      "Ġstimul": 8796,
      "Ġquotes": 8797,
      "hot": 8798,
      "ĠColl": 8799,
      "ĠPolice": 8800,
      "Ġpreferred": 8801,
      "iar": 8802,
      "got": 8803,
      "ĠCard": 8804,
      "Ġreactions": 8805,
      "Ġacknowled": 8806,
      "ĠAND": 8807,
      "bell": 8808,
      "ĠDVD": 8809,
      "Ġpresents": 8810,
      "Ġpriority": 8811,
      "Ġpurchased": 8812,
      "Ġmeetings": 8813,
      "Ġfocusing": 8814,
      "gression": 8815,
      "Ġwhilst": 8816,
      "Ġ37": 8817,
      "ĠVan": 8818,
      "Ġjer": 8819,
      "Ġhunting": 8820,
      "Ġflesh": 8821,
      "ðŁ": 8822,
      "Ġarbit": 8823,
      "stra": 8824,
      "rug": 8825,
      "Ġdefic": 8826,
      "ounced": 8827,
      "Ġmerch": 8828,
      "Ġpilot": 8829,
      "Ġstem": 8830,
      "Ġimagination": 8831,
      "una": 8832,
      "Ġcomprehensive": 8833,
      "hist": 8834,
      "Ġcomic": 8835,
      "Ġairport": 8836,
      "Ġgradually": 8837,
      "Ġconcert": 8838,
      "Ġproposal": 8839,
      "Ġtoss": 8840,
      "!!!": 8841,
      "Ġdelicious": 8842,
      "Ġcontemporary": 8843,
      "ĠRevolution": 8844,
      "Ġsoph": 8845,
      "Ġreferences": 8846,
      "Ġunem": 8847,
      "Ġspots": 8848,
      "CS": 8849,
      "Ġagenda": 8850,
      "gas": 8851,
      "iagra": 8852,
      "mother": 8853,
      "ĠJac": 8854,
      "Ġarts": 8855,
      "ikes": 8856,
      "Ġasleep": 8857,
      "Ġcasual": 8858,
      "Ġshield": 8859,
      "Ġconventional": 8860,
      "Ġpeak": 8861,
      "iro": 8862,
      "aron": 8863,
      "Ġrepresentation": 8864,
      "Ġlaz": 8865,
      "Ġcoop": 8866,
      "Comp": 8867,
      "normal": 8868,
      "Ġinsect": 8869,
      "Ġhal": 8870,
      "Ġindependence": 8871,
      "Ġengines": 8872,
      "isk": 8873,
      "isp": 8874,
      "esis": 8875,
      "Ġshoulders": 8876,
      "Ġdrops": 8877,
      "Ġsilly": 8878,
      "Ġdisagree": 8879,
      "ni": 8880,
      "Ġbadly": 8881,
      "Ġadvantages": 8882,
      "edit": 8883,
      "airy": 8884,
      "Ġoverwhelming": 8885,
      "oub": 8886,
      "ĠMain": 8887,
      "Ġresulted": 8888,
      "Ġsections": 8889,
      "Ġdisk": 8890,
      "Ġdivorce": 8891,
      "Ġvice": 8892,
      "Ġstere": 8893,
      "Ġtraveling": 8894,
      "ĠAngeles": 8895,
      "kind": 8896,
      "Ġinflamm": 8897,
      "ador": 8898,
      "ĠFall": 8899,
      "Ġspo": 8900,
      "ĠControl": 8901,
      "Ġcolleagues": 8902,
      "ĠJackson": 8903,
      "case": 8904,
      "Ġfindings": 8905,
      "Ġparking": 8906,
      "Ġhandling": 8907,
      "acher": 8908,
      "AY": 8909,
      "Ġextension": 8910,
      "Ġdys": 8911,
      "Ġdirections": 8912,
      "Ġimmigration": 8913,
      "Ġpresidential": 8914,
      "ĠNetwork": 8915,
      "Ġinterrupt": 8916,
      "Ġcitizen": 8917,
      "ĠKingdom": 8918,
      "ĠIreland": 8919,
      "Ġol": 8920,
      "Ġperceived": 8921,
      "91": 8922,
      "Ġoven": 8923,
      "earing": 8924,
      "Ġminimal": 8925,
      "Ġrab": 8926,
      "Ġpound": 8927,
      "Ġapplies": 8928,
      "Ġdemonstrate": 8929,
      "bage": 8930,
      "Act": 8931,
      "Does": 8932,
      "Ġchop": 8933,
      "><": 8934,
      "path": 8935,
      "itudes": 8936,
      "ĠPS": 8937,
      "Ġawful": 8938,
      "Home": 8939,
      "TC": 8940,
      "Ġjun": 8941,
      "Ġremembered": 8942,
      "lly": 8943,
      "Ġworldwide": 8944,
      "Ġburden": 8945,
      "ergy": 8946,
      "ĠCur": 8947,
      "Ġreturning": 8948,
      "Ġpicking": 8949,
      "ĠMom": 8950,
      "GE": 8951,
      "Ġsupplement": 8952,
      "everal": 8953,
      "Ġinhab": 8954,
      "isting": 8955,
      "Ġpride": 8956,
      "mers": 8957,
      "ĠColumb": 8958,
      "nders": 8959,
      "Gr": 8960,
      "ĠGuide": 8961,
      "Ġ1998": 8962,
      "Ġtons": 8963,
      "Ġporn": 8964,
      "arently": 8965,
      "Ġearned": 8966,
      "ĠMir": 8967,
      "ĠPo": 8968,
      "ntil": 8969,
      "ĠBrazil": 8970,
      "including": 8971,
      "Ġsurrounded": 8972,
      "Ġ400": 8973,
      "div": 8974,
      "Ġwondered": 8975,
      "Ġcollective": 8976,
      "Ġterrorist": 8977,
      "Ġcriticism": 8978,
      "Ġgest": 8979,
      "Ġdrove": 8980,
      "Ġvoices": 8981,
      "ĠIce": 8982,
      "Ġdiscl": 8983,
      "Ġvacation": 8984,
      "Ġinspiration": 8985,
      "ĠMoon": 8986,
      "Ġwaters": 8987,
      "Ġcrap": 8988,
      "Ġalign": 8989,
      "Ġcurve": 8990,
      "Ġconvince": 8991,
      "Ġthrew": 8992,
      "asters": 8993,
      "ĠDead": 8994,
      "print": 8995,
      "Ġfrequent": 8996,
      "ĠTony": 8997,
      "elcome": 8998,
      "arma": 8999,
      "ĠNO": 9000,
      "ĠAdv": 9001,
      "Ġmainstream": 9002,
      "ĠDoctor": 9003,
      "nded": 9004,
      "Ġfactory": 9005,
      "Ġattempting": 9006,
      "ervation": 9007,
      "Ġdramatic": 9008,
      "inite": 9009,
      "Ġcontrad": 9010,
      "aylor": 9011,
      "ĠBoston": 9012,
      "87": 9013,
      "pot": 9014,
      "Ġjuice": 9015,
      "Ġfails": 9016,
      "Ġhungry": 9017,
      "ĠSarah": 9018,
      "Ġemployer": 9019,
      "Ġfacility": 9020,
      "ĠPoint": 9021,
      "Ġvitamin": 9022,
      "++": 9023,
      "dated": 9024,
      "Ġelder": 9025,
      "Christ": 9026,
      "Ġho": 9027,
      "Ġmeaningful": 9028,
      "Ġdumb": 9029,
      "ussion": 9030,
      "Ġyard": 9031,
      "Ġhitting": 9032,
      "Ġcann": 9033,
      "ĠDisney": 9034,
      "Ġcontinuing": 9035,
      "orph": 9036,
      "ictions": 9037,
      "Ġvisiting": 9038,
      "ĠReport": 9039,
      "Ġclosing": 9040,
      "onds": 9041,
      "Ġstrengthen": 9042,
      "Ġrape": 9043,
      "Ġcous": 9044,
      "Ġimplemented": 9045,
      "Ġpoetry": 9046,
      "ĠGirl": 9047,
      "ĠAndrew": 9048,
      "85": 9049,
      "Ġmonster": 9050,
      "Ġbaseball": 9051,
      "Ġ150": 9052,
      "ĠHa": 9053,
      "Ġexisted": 9054,
      "Ġsubsequent": 9055,
      "Ġpersu": 9056,
      "Ġreads": 9057,
      "Ġwarming": 9058,
      "irts": 9059,
      "ĠDO": 9060,
      "Ġscope": 9061,
      "ĠAndroid": 9062,
      "Ġate": 9063,
      "Ġgeneric": 9064,
      "ĠTreat": 9065,
      "Ġconversations": 9066,
      "Ġmigr": 9067,
      "ĠMatt": 9068,
      "Ġconcerning": 9069,
      "Ġromantic": 9070,
      "igate": 9071,
      "Ġdirectory": 9072,
      "Ġtie": 9073,
      "Ġpossibilities": 9074,
      "ĠQuest": 9075,
      "ĠMoreover": 9076,
      "89": 9077,
      "ictionary": 9078,
      "Ġbroadcast": 9079,
      "pathy": 9080,
      "Ġmotivation": 9081,
      "Ġhopefully": 9082,
      "ĠAdditionally": 9083,
      "ĠMach": 9084,
      "Ġinherent": 9085,
      "foot": 9086,
      "ĠRog": 9087,
      "Ġregulation": 9088,
      "rieved": 9089,
      "Ġnodd": 9090,
      "Ġsurve": 9091,
      "Ġboot": 9092,
      "ĠAcadem": 9093,
      "ĠNE": 9094,
      "Ġcorrupt": 9095,
      "Ġfruits": 9096,
      "Ġinnovation": 9097,
      "ĠJoseph": 9098,
      "Ġviewed": 9099,
      "Ġrib": 9100,
      "Ġouts": 9101,
      "utors": 9102,
      "Ġspray": 9103,
      "Ġcoat": 9104,
      "ĠEqu": 9105,
      "ione": 9106,
      "Ġnegoti": 9107,
      "effect": 9108,
      "Ġpod": 9109,
      "ĠCost": 9110,
      "Ġlegend": 9111,
      "Reg": 9112,
      "ĠLinux": 9113,
      "endar": 9114,
      "Ġnewly": 9115,
      "Ġvulnerable": 9116,
      "Ġcomplexity": 9117,
      "Ġcovering": 9118,
      "Ġdressed": 9119,
      "Ġmanufacturing": 9120,
      "Ġcul": 9121,
      "Ġbeside": 9122,
      "Ġpp": 9123,
      "Ġnaked": 9124,
      "Ġscary": 9125,
      "Em": 9126,
      "âĦ": 9127,
      "ĠBal": 9128,
      "ĠLeg": 9129,
      "Ġemployed": 9130,
      "Maybe": 9131,
      "ĠFred": 9132,
      "ĠFriend": 9133,
      "peror": 9134,
      "ĠURL": 9135,
      "Ġevident": 9136,
      "Ġsacrifice": 9137,
      "Ġbran": 9138,
      "Ġupdates": 9139,
      "Ġsatell": 9140,
      "Ġuncomfortable": 9141,
      "ko": 9142,
      "unity": 9143,
      "ĠChristianity": 9144,
      "ĠLi": 9145,
      "ĠFurthermore": 9146,
      "ĠAge": 9147,
      "Ġrequirement": 9148,
      "Ġgaming": 9149,
      "Ġconspir": 9150,
      "Ġconstra": 9151,
      "Ġinstances": 9152,
      "encing": 9153,
      "Ġgym": 9154,
      "Ġprovider": 9155,
      "ĠHon": 9156,
      "ogs": 9157,
      "Ġfitness": 9158,
      "Ġtoile": 9159,
      "Ġdozen": 9160,
      "Ġestimate": 9161,
      "raine": 9162,
      "Ġtap": 9163,
      "Ġmagical": 9164,
      "your": 9165,
      "arted": 9166,
      "elve": 9167,
      "Ġcriteria": 9168,
      "olen": 9169,
      "Ġcourses": 9170,
      "itals": 9171,
      "asting": 9172,
      "izabeth": 9173,
      "uana": 9174,
      "Ġneutral": 9175,
      "LC": 9176,
      "ĠGeorg": 9177,
      "Ġexecution": 9178,
      "Ġsubstantial": 9179,
      "God": 9180,
      "ĠTar": 9181,
      "Ġessence": 9182,
      "Ġplatforms": 9183,
      "eem": 9184,
      "ordan": 9185,
      "Ġpresum": 9186,
      "aimed": 9187,
      "Ġinfluenced": 9188,
      "lude": 9189,
      "Ġodds": 9190,
      "Ġaggressive": 9191,
      "Ġdose": 9192,
      "Ġleague": 9193,
      "ĠAff": 9194,
      "ante": 9195,
      "ĠFrancisco": 9196,
      "ĠAfghanistan": 9197,
      "child": 9198,
      "ĠMah": 9199,
      "bridge": 9200,
      "Ġfilling": 9201,
      "ailed": 9202,
      "ĠMother": 9203,
      "Ġfears": 9204,
      "Ġirre": 9205,
      "style": 9206,
      "ĠWH": 9207,
      "ĠDun": 9208,
      "Ġknife": 9209,
      "ĠAli": 9210,
      "ĠMult": 9211,
      "Down": 9212,
      "Ġdancing": 9213,
      "Ġdesigns": 9214,
      "ĠIII": 9215,
      "makers": 9216,
      "grad": 9217,
      "human": 9218,
      "lected": 9219,
      "ĠMars": 9220,
      "ateful": 9221,
      "Ġderived": 9222,
      "Ġcrying": 9223,
      "attered": 9224,
      "Ġabund": 9225,
      "Ġsemi": 9226,
      "Tra": 9227,
      "ĠOper": 9228,
      "Ġsweat": 9229,
      "Ġlands": 9230,
      "ollowing": 9231,
      "Ġstrategic": 9232,
      "Ġresident": 9233,
      "Ġcompound": 9234,
      "Ġunnecess": 9235,
      "Ġpunishment": 9236,
      "Ġtransportation": 9237,
      "fections": 9238,
      "Ġcompat": 9239,
      "Ġdistract": 9240,
      "2017": 9241,
      "Ġcollapse": 9242,
      "Ġsuggestions": 9243,
      "Ġlaughed": 9244,
      "ĠSouthern": 9245,
      "Author": 9246,
      "ĠRather": 9247,
      "Ġcontest": 9248,
      "Ġdestination": 9249,
      "ĠCommittee": 9250,
      "Ġtale": 9251,
      "ĠLim": 9252,
      "Ġproviders": 9253,
      "mates": 9254,
      "eric": 9255,
      "ĠBern": 9256,
      "Ġenjoying": 9257,
      "epend": 9258,
      "Ġrender": 9259,
      "ifier": 9260,
      "iva": 9261,
      "DR": 9262,
      "icious": 9263,
      "opy": 9264,
      "pered": 9265,
      "ĠKenn": 9266,
      "owned": 9267,
      "Ġprecious": 9268,
      "Photo": 9269,
      "Ġstations": 9270,
      "Ġhaz": 9271,
      "ults": 9272,
      "Ġdisorders": 9273,
      "never": 9274,
      "ĠIrish": 9275,
      "ĠSon": 9276,
      "Ġoutcomes": 9277,
      "Ġinstruction": 9278,
      "ĠBlood": 9279,
      "ÂłĊĊ": 9280,
      "ĠOnline": 9281,
      "rates": 9282,
      "Ġfright": 9283,
      "engers": 9284,
      "pa": 9285,
      "Ġdirt": 9286,
      "Ġhiding": 9287,
      "ĠAud": 9288,
      "alous": 9289,
      "Ġfounded": 9290,
      "ĠCode": 9291,
      "ĠFox": 9292,
      "Ġaddressed": 9293,
      "Ġexpense": 9294,
      "Ġdrum": 9295,
      "Ġdenied": 9296,
      "Ġaccuracy": 9297,
      "aya": 9298,
      "ĠBon": 9299,
      "Ġinstantly": 9300,
      "inst": 9301,
      "ĠSaudi": 9302,
      "Ġballs": 9303,
      "throp": 9304,
      "Ġsentences": 9305,
      "Ġpenalty": 9306,
      "Top": 9307,
      "Ġmetaph": 9308,
      "Ġentitled": 9309,
[...]
